<unk>	0
<s>	0
</s>	0
''	-0
ax	-1
ix	-2
'1	-3
▁p	-4
nax	-5
▁s	-6
jax	-7
ts	-8
ra	-9
ux	-10
ch	-11
▁v	-12
▁n	-13
▁a	-14
zh	-15
sh	-16
vax	-17
st	-18
▁k	-19
▁d	-20
rax	-21
▁m	-22
▁f	-23
tsax	-24
tax	-25
▁b	-26
sk	-27
▁pr	-28
▁z	-29
ta	-30
va	-31
jux	-32
la	-33
▁g	-34
na	-35
da	-36
▁na	-37
lax	-38
▁'	-39
▁pax	-40
▁t	-41
▁i	-42
▁u	-43
kax	-44
▁ka	-45
▁nax	-46
ro	-47
▁pa	-48
▁ra	-49
tstsax	-50
ka	-51
▁r	-52
ixi	-53
nnax	-54
▁j	-55
▁e	-56
▁l	-57
▁pra	-58
max	-59
dax	-60
ma	-61
▁y	-62
to	-63
vo	-64
pa	-65
▁ch	-66
sta	-67
skax	-68
no	-69
▁sax	-70
zhax	-71
▁sa	-72
▁za	-73
ru	-74
▁sh	-75
zhy	-76
vl	-77
▁va	-78
ga	-79
▁ab	-80
▁at	-81
▁da	-82
gax	-83
lo	-84
ixa	-85
za	-86
bo	-87
▁ma	-88
ixt	-89
naxm	-90
shax	-91
▁sta	-92
▁vy	-93
tse	-94
tra	-95
zax	-96
▁kax	-97
kt	-98
ny	-99
▁zax	-100
tsy	-101
▁vax	-102
▁ba	-103
ixm	-104
▁by	-105
▁o	-106
jaxt	-107
▁fs	-108
ixsk	-109
stv	-110
▁h	-111
stax	-112
ko	-113
dux	-114
sax	-115
▁prax	-116
nux	-117
sp	-118
sa	-119
rt	-120
zhe	-121
juxt	-122
naxh	-123
mo	-124
ixnnax	-125
ixk	-126
gh	-127
stvax	-128
▁bu	-129
ixh	-130
bax	-131
bl	-132
▁ji	-133
▁ga	-134
zha	-135
ir	-136
▁po	-137
ja	-138
tnax	-139
ntax	-140
lu	-141
▁stra	-142
jaxtstsax	-143
▁mo	-144
ixr	-145
▁go	-146
▁ta	-147
ji	-148
▁no	-149
▁rax	-150
in	-151
she	-152
raxf	-153
▁tr	-154
ixvax	-155
ixkax	-156
pax	-157
je	-158
rux	-159
tu	-160
raxvax	-161
mux	-162
▁zhy	-163
ixn	-164
▁dl	-165
zhnax	-166
iz	-167
vy	-168
ry	-169
snax	-170
▁do	-171
tr	-172
zhd	-173
ia	-174
shy	-175
kux	-176
dnax	-177
axt	-178
su	-179
▁iz	-180
sl	-181
▁gax	-182
▁sva	-183
tv	-184
vnax	-185
ho	-186
rnax	-187
▁max	-188
ha	-189
pr	-190
kra	-191
ira	-192
ina	-193
ixskax	-194
▁rabo	-195
so	-196
ixu	-197
rg	-198
du	-199
zy	-200
ino	-201
▁kam	-202
nk	-203
ixnax	-204
ty	-205
ivo	-206
juxtstsax	-207
ba	-208
ik	-209
ixo	-210
ls	-211
▁tse	-212
ika	-213
'1'	-214
taxm	-215
▁sp	-216
▁bo	-217
tsaxa	-218
nu	-219
tsa	-220
▁dax	-221
znax	-222
ima	-223
vra	-224
ixe	-225
▁su	-226
▁vr	-227
nt	-228
hax	-229
ju	-230
taxvax	-231
▁ru	-232
ixra	-233
▁dv	-234
fa	-235
psh	-236
▁shto	-237
ita	-238
ixd	-239
ig	-240
stu	-241
pra	-242
▁mno	-243
io	-244
▁vo	-245
▁kan	-246
jaxm	-247
ixla	-248
ixts	-249
▁to	-250
▁pla	-251
iza	-252
rma	-253
str	-254
ku	-255
▁sl	-256
▁dva	-257
ktsax	-258
sho	-259
jaxd	-260
my	-261
pro	-262
▁ko	-263
▁ax	-264
▁saxsta	-265
rvax	-266
▁ad	-267
▁kampa	-268
ito	-269
gra	-270
▁as	-271
taxrax	-272
zhdax	-273
ixstvax	-274
ntsax	-275
▁ha	-276
spa	-277
im	-278
iva	-279
▁vapro	-280
▁sr	-281
kaxna	-282
trax	-283
vn	-284
pl	-285
tstsa	-286
▁ar	-287
▁mask	-288
▁vla	-289
stra	-290
▁ku	-291
▁ty	-292
ixgh	-293
▁gra	-294
gux	-295
by	-296
▁kr	-297
ida	-298
rm	-299
ixtstsax	-300
▁so	-301
tstv	-302
kry	-303
nkax	-304
zv	-305
ixtsaxa	-306
naxvax	-307
ixza	-308
▁plo	-309
sto	-310
ska	-311
dy	-312
ishe	-313
tux	-314
fshax	-315
ixka	-316
pla	-317
▁saz	-318
▁abj	-319
zhaxt	-320
▁in	-321
naxf	-322
do	-323
dzh	-324
kaza	-325
▁raxz	-326
ne	-327
iro	-328
dz	-329
▁paxd	-330
▁dru	-331
mu	-332
fk	-333
ikt	-334
fo	-335
▁dal	-336
tst	-337
laxgax	-338
▁pratse	-339
ixtsta	-340
ktax	-341
axm	-342
▁sv	-343
▁smo	-344
stva	-345
▁sha	-346
go	-347
tk	-348
▁dalzh	-349
▁ry	-350
is	-351
isa	-352
▁aba	-353
duxt	-354
farma	-355
bra	-356
rmax	-357
▁kantse	-358
▁pu	-359
tsyo	-360
sty	-361
ixl	-362
▁paxlu	-363
ixg	-364
▁ro	-365
ntaxf	-366
ftax	-367
ixga	-368
pu	-369
ivy	-370
fskax	-371
▁maxla	-372
▁lu	-373
daxvax	-374
▁spa	-375
gl	-376
izhe	-377
rd	-378
▁vaxz	-379
▁ekaxna	-380
iny	-381
shl	-382
▁pro	-383
▁vn	-384
izha	-385
br	-386
▁mu	-387
guxt	-388
po	-389
zhda	-390
ixrax	-391
▁kra	-392
▁strany	-393
isp	-394
ifo	-395
zaxvax	-396
▁ap	-397
juxd	-398
ixlax	-399
inta	-400
kaxh	-401
zyka	-402
▁atkry	-403
▁slu	-404
nda	-405
ndax	-406
tstvax	-407
ixkaxf	-408
daro	-409
▁saxa	-410
▁pad	-411
kl	-412
gda	-413
rkax	-414
▁sazda	-415
▁du	-416
▁bax	-417
ixz	-418
nnux	-419
▁yz	-420
llax	-421
▁nalo	-422
vnaxh	-423
▁gla	-424
nskax	-425
▁kato	-426
ln	-427
ns	-428
rna	-429
ixtpr	-430
sm	-431
suda	-432
▁fa	-433
ixstv	-434
▁kla	-435
▁fo	-436
nsk	-437
▁gaxsuda	-438
saxf	-439
▁nu	-440
▁rubl	-441
▁gru	-442
iml	-443
ixap	-444
zdax	-445
▁tsy	-446
iko	-447
id	-448
▁kl	-449
blax	-450
stro	-451
▁uda	-452
ixkaxm	-453
ap	-454
▁tru	-455
ixapha	-456
bu	-457
ikto	-458
tsya	-459
▁vyso	-460
▁vnu	-461
▁sasta	-462
▁sto	-463
fsk	-464
▁rux	-465
▁gato	-466
it	-467
▁my	-468
staxf	-469
▁la	-470
tskax	-471
naxmux	-472
shk	-473
nnaxh	-474
▁asna	-475
mnax	-476
▁tra	-477
ixmp	-478
tkax	-479
ubo	-480
▁maskv	-481
▁dalzhny	-482
▁dvu	-483
▁vaz	-484
zhn	-485
▁ras	-486
▁sm	-487
mn	-488
rdax	-489
nashe	-490
▁zh	-491
izo	-492
ixma	-493
razha	-494
stvaxvax	-495
ft	-496
▁naro	-497
spo	-498
▁hax	-499
sko	-500
nst	-501
▁asta	-502
taxf	-503
hn	-504
▁bl	-505
shn	-506
irzha	-507
▁saxapsh	-508
rn	-509
ixdla	-510
▁kamp	-511
ixzh	-512
▁blaxgax	-513
zva	-514
ixva	-515
▁svabo	-516
raxm	-517
naxgh	-518
rch	-519
vux	-520
▁ho	-521
naxk	-522
▁atl	-523
isu	-524
spax	-525
▁sux	-526
▁jivl	-527
taxh	-528
▁zo	-529
itsy	-530
▁apr	-531
lux	-532
▁vz	-533
skaxm	-534
▁zako	-535
▁fstr	-536
bux	-537
▁vazmo	-538
imo	-539
ivl	-540
pravl	-541
▁me	-542
ixpa	-543
rk	-544
ixvra	-545
▁abra	-546
▁gr	-547
ntra	-548
spr	-549
pnax	-550
▁pl	-551
sha	-552
▁mux	-553
▁infarma	-554
▁ene	-555
▁uzhe	-556
ixratu	-557
▁saxstavl	-558
ixda	-559
igda	-560
ixzhdux	-561
▁paka	-562
▁tu	-563
▁targ	-564
▁prada	-565
ixta	-566
▁vra	-567
bnax	-568
ixmux	-569
zhaxn	-570
ixs	-571
▁hra	-572
tnaxm	-573
▁yn	-574
▁ak	-575
zm	-576
ixpla	-577
dna	-578
rtax	-579
▁izv	-580
navl	-581
shaxh	-582
zb	-583
pk	-584
vaxh	-585
vaxvax	-586
▁atm	-587
sava	-588
▁atnashe	-589
▁svo	-590
axtstsax	-591
▁saxkra	-592
▁kva	-593
▁lax	-594
ixzhy	-595
ixskux	-596
▁paxsta	-597
▁akt	-598
▁fra	-599
its	-600
staxm	-601
pn	-602
iga	-603
gato	-604
kla	-605
rtu	-606
jaxh	-607
ixsta	-608
fax	-609
ratu	-610
shnax	-611
nd	-612
▁an	-613
ntaxm	-614
▁gaxva	-615
skaxvax	-616
rsax	-617
at	-618
stvux	-619
▁jivo	-620
ixku	-621
▁shv	-622
ixana	-623
▁shy	-624
ixtsya	-625
snaxm	-626
traxf	-627
gla	-628
rgax	-629
fl	-630
▁klu	-631
▁gara	-632
▁vaxa	-633
▁prakt	-634
rzhax	-635
▁muxzyka	-636
▁lo	-637
ishy	-638
▁vaxzvra	-639
▁paxdgato	-640
mpax	-641
taxt	-642
▁znax	-643
▁vaxda	-644
lgax	-645
laxm	-646
zaxnax	-647
mb	-648
▁kru	-649
kuxratu	-650
▁praxkuxratu	-651
▁abaro	-652
▁ys	-653
zhyda	-654
ivax	-655
▁us	-656
irna	-657
lada	-658
▁vaxsa	-659
maxm	-660
▁paxla	-661
▁kvart	-662
▁prabl	-663
vu	-664
tsk	-665
▁eta	-666
▁saxra	-667
shu	-668
tsye	-669
raxda	-670
▁zhax	-671
▁maxga	-672
▁azhyda	-673
▁abl	-674
istu	-675
ruzhe	-676
rstvax	-677
▁zdaro	-678
▁gaxra	-679
▁stu	-680
shaxm	-681
▁bank	-682
fshaxvax	-683
▁gux	-684
taro	-685
tva	-686
▁zbo	-687
▁zna	-688
▁praho	-689
juxtstsa	-690
▁blaxgaxtva	-691
tsu	-692
rstv	-693
ixbax	-694
ixrta	-695
raxvaxl	-696
kavo	-697
▁byla	-698
▁sabra	-699
nnaxvax	-700
ixskaxmux	-701
ud	-702
▁davl	-703
▁izzax	-704
▁jivra	-705
▁nazva	-706
▁pradu	-707
ixkagda	-708
▁paxtsye	-709
vr	-710
hra	-711
rhn	-712
zux	-713
daxm	-714
zdux	-715
paln	-716
ixplama	-717
sku	-718
nsax	-719
uxbl	-720
▁tvo	-721
▁yzv	-722
▁yspo	-723
jaxmax	-724
llaxraxf	-725
ibo	-726
zna	-727
naro	-728
uzhe	-729
▁kaxmux	-730
▁st	-731
hmax	-732
▁adna	-733
▁targo	-734
▁praxda	-735
▁standa	-736
▁strada	-737
ntaxv	-738
▁tala	-739
▁raska	-740
▁zaxbax	-741
ixskaxvax	-742
nnaxm	-743
strax	-744
▁naxka	-745
ila	-746
bv	-747
rs	-748
▁abu	-749
▁prae	-750
de	-751
ixzy	-752
izhy	-753
ixaby	-754
▁razv	-755
tnaxgh	-756
▁atkaza	-757
gaxh	-758
axvax	-759
mpl	-760
nta	-761
ixman	-762
gna	-763
▁she	-764
▁masko	-765
ixzhduxnaro	-766
apa	-767
ntl	-768
▁igra	-769
▁pasl	-770
gaxdnax	-771
▁ek	-772
mpaxrt	-773
stvaxvaxlax	-774
ks	-775
taxr	-776
▁zha	-777
▁gadu	-778
▁tv	-779
raxt	-780
▁damo	-781
zhdy	-782
▁fakt	-783
iktu	-784
paxf	-785
▁tsax	-786
▁zavo	-787
ixdlaga	-788
▁utra	-789
ixsava	-790
ixvaxl	-791
shkax	-792
zhyva	-793
▁upravl	-794
▁dy	-795
gzhax	-796
traxv	-797
ua	-798
idu	-799
iso	-800
mkaxh	-801
▁dazhd	-802
nnaxmux	-803
ixuda	-804
▁nuzhda	-805
gn	-806
▁fkl	-807
ixizb	-808
ktr	-809
▁arh	-810
▁paro	-811
▁jizhy	-812
▁pasta	-813
▁sazna	-814
▁nau	-815
ixtsax	-816
▁urazha	-817
▁sno	-818
▁made	-819
ikta	-820
ixhs	-821
ixrsk	-822
▁narma	-823
ixnnaxvax	-824
uxa	-825
brax	-826
ravo	-827
▁dyha	-828
taxmux	-829
▁vaxsta	-830
ixmanstr	-831
▁aktsaxa	-832
pux	-833
ixna	-834
staxh	-835
▁dava	-836
igr	-837
jibr	-838
dzhax	-839
▁angl	-840
▁apsu	-841
▁bomo	-842
▁ekra	-843
▁kvax	-844
kaxlax	-845
mp	-846
ista	-847
vaxm	-848
▁shax	-849
ftaxma	-850
ixgavo	-851
stvu	-852
▁paxt	-853
▁raspa	-854
▁pragra	-855
ixvaxvax	-856
raxvaxnnux	-857
apt	-858
ity	-859
▁ska	-860
ixspr	-861
▁kaka	-862
duxsaxf	-863
▁raxzna	-864
zu	-865
ixbl	-866
rkux	-867
▁paxl	-868
▁argax	-869
▁spako	-870
rta	-871
ubv	-872
inny	-873
▁tax	-874
ixstva	-875
ixznax	-876
ixznaxdaro	-877
lk	-878
▁zhe	-879
▁akaza	-880
▁zr	-881
udzhe	-882
ixnnaxm	-883
▁nat	-884
ixusp	-885
hmaxtnax	-886
ixru	-887
▁rastse	-888
ixstakra	-889
▁vaxstana	-890
rde	-891
rsh	-892
lnax	-893
savy	-894
vato	-895
ixnnaxh	-896
ixrvato	-897
kto	-898
nva	-899
dnakra	-900
stkaxh	-901
▁vashl	-902
ixadnakra	-903
jivl	-904
▁dra	-905
▁sly	-906
istra	-907
masko	-908
rtaxm	-909
▁maxlako	-910
▁paxdmasko	-911
▁praxzhyva	-912
iho	-913
sna	-914
nstf	-915
▁pasm	-916
▁paxvl	-917
nka	-918
sla	-919
nuxs	-920
raxk	-921
▁uslo	-922
zduxhax	-923
▁etazhe	-924
▁zaxapa	-925
haxtstsax	-926
ixeta	-927
ftaxmax	-928
ixrnaxm	-929
ly	-930
▁stary	-931
isho	-932
stux	-933
▁naho	-934
ixfskax	-935
ada	-936
lho	-937
ixoka	-938
▁pshy	-939
ixrurg	-940
paxtax	-941
▁kalho	-942
zaxrnax	-943
▁abagna	-944
▁jiravo	-945
igro	-946
kano	-947
nkux	-948
▁dro	-949
▁kagda	-950
▁pastu	-951
▁haxlada	-952
▁tsyntra	-953
▁vaxaruzhe	-954
isl	-955
vno	-956
kako	-957
istvu	-958
itsta	-959
rnaxh	-960
▁laxu	-961
ixdzha	-962
ixusax	-963
▁kaxns	-964
uxtstsa	-965
▁raxkako	-966
axdz	-967
▁apa	-968
ixtua	-969
▁ruxkavo	-970
efa	-971
infl	-972
itse	-973
▁sra	-974
▁defa	-975
baxvax	-976
ixesty	-977
ixzyka	-978
jaxvra	-979
uxarde	-980
▁padmo	-981
ixindax	-982
naxraxf	-983
nkaxfsk	-984
▁igravo	-985
dzhaxrax	-986
▁vaxsaty	-987
naxdzhaxrax	-988
tna	-989
zaxbl	-990
ixizaxbl	-991
▁is	-992
apuxbl	-993
vaxnnux	-994
▁raxznapla	-995
shlo	-996
▁sla	-997
ixtsyo	-998
ixzatv	-999
▁paxtr	-1000
▁abnavl	-1001
ixekaxna	-1002
inu	-1003
zyva	-1004
iximu	-1005
staka	-1006
▁gaga	-1007
▁jinva	-1008
▁estaka	-1009
py	-1010
▁ukra	-1011
laxgaxba	-1012
fkax	-1013
ixsax	-1014
ixmax	-1015
▁stax	-1016
axh	-1017
ixls	-1018
raxh	-1019
▁fkux	-1020
▁saxrava	-1021
▁fkuxsavy	-1022
stf	-1023
gu	-1024
ktaxf	-1025
ktrax	-1026
▁praxdal	-1027
kru	-1028
irnu	-1029
▁pat	-1030
▁apsh	-1031
vaxnax	-1032
tyr	-1033
▁ux	-1034
lzhaxn	-1035
sy	-1036
▁zda	-1037
ih	-1038
itu	-1039
stupl	-1040
zhaxnax	-1041
zho	-1042
zaxf	-1043
jivo	-1044
dnaxh	-1045
irshy	-1046
ene	-1047
ixha	-1048
kaxva	-1049
▁palu	-1050
laxvax	-1051
▁ruxkaxva	-1052
kuro	-1053
vnaxm	-1054
▁svax	-1055
▁tava	-1056
tsaxana	-1057
▁vm	-1058
▁abv	-1059
▁slo	-1060
raxvn	-1061
ktu	-1062
▁aru	-1063
▁dvuh	-1064
shaxvax	-1065
▁praxva	-1066
irbu	-1067
taxraxm	-1068
dl	-1069
▁sy	-1070
▁usp	-1071
▁saxhra	-1072
▁naxsta	-1073
izy	-1074
slu	-1075
▁zv	-1076
ixspa	-1077
zhaxd	-1078
▁daro	-1079
▁usta	-1080
▁kaxta	-1081
ixf	-1082
rsk	-1083
daxf	-1084
imax	-1085
nstv	-1086
▁bra	-1087
sma	-1088
ispu	-1089
ixdax	-1090
lda	-1091
▁kaxn	-1092
zda	-1093
▁gala	-1094
tsv	-1095
ixkux	-1096
ixzapa	-1097
▁sj	-1098
laxf	-1099
ppax	-1100
stk	-1101
dnaxm	-1102
▁zhyla	-1103
▁vaxzra	-1104
ikla	-1105
pstv	-1106
shla	-1107
iku	-1108
ntr	-1109
izvo	-1110
jaxf	-1111
stupa	-1112
▁paxda	-1113
saxvax	-1114
ixpu	-1115
mmux	-1116
snaxh	-1117
▁kn	-1118
znaxh	-1119
ixstax	-1120
infarma	-1121
ktraxene	-1122
▁praxdalzha	-1123
ml	-1124
ixdasta	-1125
▁str	-1126
▁zaka	-1127
▁praxkuro	-1128
▁ps	-1129
ixnsk	-1130
nskaxvax	-1131
ilo	-1132
▁ftaro	-1133
gavo	-1134
▁gro	-1135
▁ekano	-1136
rtnax	-1137
uxrna	-1138
▁paxkaza	-1139
rh	-1140
igra	-1141
naxv	-1142
zhdu	-1143
▁fch	-1144
▁daxku	-1145
rb	-1146
gro	-1147
ird	-1148
▁sko	-1149
nspax	-1150
ixputa	-1151
▁aftaxma	-1152
raxza	-1153
▁maskvy	-1154
gr	-1155
ntro	-1156
▁ynv	-1157
▁salda	-1158
▁saxma	-1159
▁kantro	-1160
▁fp	-1161
zhbax	-1162
mpa	-1163
▁utv	-1164
▁vzry	-1165
axd	-1166
itra	-1167
▁asno	-1168
zhdaxn	-1169
▁vakru	-1170
ixgu	-1171
▁atv	-1172
▁razhd	-1173
▁udalo	-1174
snaxvax	-1175
▁mn	-1176
byva	-1177
nuxt	-1178
▁haxra	-1179
▁napra	-1180
iru	-1181
▁raz	-1182
▁spo	-1183
▁buma	-1184
▁eksp	-1185
▁ispo	-1186
zhnaxm	-1187
▁spaso	-1188
▁zhuxrna	-1189
tso	-1190
isk	-1191
saxm	-1192
▁aso	-1193
fshaxh	-1194
taxraxf	-1195
jaxtstsa	-1196
▁shko	-1197
raxzava	-1198
▁saxgla	-1199
▁abraxzava	-1200
▁br	-1201
▁fu	-1202
▁vl	-1203
axshn	-1204
▁strax	-1205
▁zaxkl	-1206
dnaxvax	-1207
dv	-1208
ad	-1209
ibl	-1210
shux	-1211
ruktu	-1212
axtsax	-1213
tstvux	-1214
▁kaxra	-1215
vna	-1216
gaxm	-1217
gaxvax	-1218
staxnavl	-1219
sv	-1220
tstf	-1221
▁adno	-1222
nnaxgh	-1223
rnaxvax	-1224
gru	-1225
▁fax	-1226
▁haro	-1227
▁stro	-1228
fskaxvax	-1229
rzhaxvax	-1230
sux	-1231
zhux	-1232
▁izm	-1233
nstvo	-1234
tnaxh	-1235
shynstvo	-1236
sme	-1237
udo	-1238
ixzny	-1239
▁naza	-1240
▁suda	-1241
ixktaro	-1242
ixznysme	-1243
mmax	-1244
rdaxf	-1245
▁asux	-1246
▁daho	-1247
▁dalzhno	-1248
yta	-1249
ixzu	-1250
maxh	-1251
▁fho	-1252
jaxnax	-1253
▁raxzra	-1254
▁kaxtastro	-1255
ipo	-1256
imu	-1257
ipl	-1258
raxv	-1259
▁adm	-1260
▁zada	-1261
ixlaru	-1262
staxna	-1263
▁paxvy	-1264
kaxm	-1265
▁paxma	-1266
▁zakry	-1267
tstsaxtaxvax	-1268
glax	-1269
isto	-1270
▁aka	-1271
tyrne	-1272
▁pastro	-1273
▁naxtsaxana	-1274
ist	-1275
▁izra	-1276
▁adnavo	-1277
ie	-1278
ixny	-1279
plax	-1280
zhna	-1281
▁tsv	-1282
▁pada	-1283
▁gaxda	-1284
zma	-1285
farm	-1286
▁shu	-1287
▁paxzva	-1288
bj	-1289
nkt	-1290
ixtax	-1291
ktaxr	-1292
znaxm	-1293
▁magn	-1294
▁maxlady	-1295
vny	-1296
garo	-1297
prax	-1298
▁tako	-1299
zo	-1300
vro	-1301
imna	-1302
isku	-1303
▁sabo	-1304
axl	-1305
abra	-1306
gaxf	-1307
islo	-1308
tshax	-1309
▁abna	-1310
▁arga	-1311
▁naxva	-1312
itv	-1313
nts	-1314
inva	-1315
vnux	-1316
ntnax	-1317
▁krax	-1318
kaxvax	-1319
ntsaxf	-1320
nuxtax	-1321
▁saxzda	-1322
itna	-1323
zmax	-1324
▁sku	-1325
▁baga	-1326
▁fkla	-1327
▁gada	-1328
ixtstavl	-1329
▁naxzyva	-1330
▁struktu	-1331
ipa	-1332
nna	-1333
mvax	-1334
ntsu	-1335
slax	-1336
▁ara	-1337
ixpax	-1338
puska	-1339
▁fpaln	-1340
▁dvuhty	-1341
izu	-1342
izva	-1343
skux	-1344
ixsla	-1345
ktaxm	-1346
nkuxrs	-1347
▁mashy	-1348
era	-1349
▁arb	-1350
▁mnax	-1351
shlaxm	-1352
▁atpra	-1353
isha	-1354
nstva	-1355
rtsax	-1356
▁atse	-1357
▁kasm	-1358
▁patp	-1359
▁pramy	-1360
▁paxlna	-1361
tru	-1362
rnux	-1363
▁aby	-1364
▁ats	-1365
▁kro	-1366
ixkla	-1367
▁isto	-1368
ixzhdu	-1369
▁dalzhna	-1370
ixpr	-1371
nktsax	-1372
zhaxnnax	-1373
gd	-1374
ish	-1375
saxh	-1376
axtax	-1377
▁daxl	-1378
ixravo	-1379
▁raxzm	-1380
▁saxvr	-1381
ixtstsy	-1382
▁paxlta	-1383
kaxtaxrax	-1384
izh	-1385
rla	-1386
sno	-1387
vaxf	-1388
▁isl	-1389
naxrg	-1390
▁hara	-1391
▁naxha	-1392
▁vnutr	-1393
▁raxzrabo	-1394
ip	-1395
vm	-1396
itro	-1397
ixvl	-1398
lkax	-1399
▁axn	-1400
▁fux	-1401
▁zhu	-1402
istvl	-1403
ndaxk	-1404
tnaxvax	-1405
▁abnaru	-1406
▁raxspax	-1407
▁saxraka	-1408
fr	-1409
▁gd	-1410
galo	-1411
ivra	-1412
ixks	-1413
▁ana	-1414
irshe	-1415
ixkra	-1416
▁hudo	-1417
izv	-1418
kro	-1419
ixrt	-1420
izhd	-1421
daxvl	-1422
tkaxf	-1423
shkaxm	-1424
▁raxsp	-1425
▁stano	-1426
▁zatra	-1427
▁kantra	-1428
▁frantsu	-1429
▁vaxzyva	-1430
▁paxvyshe	-1431
nalo	-1432
pada	-1433
vaxk	-1434
▁tal	-1435
▁val	-1436
ishlo	-1437
rstva	-1438
▁padj	-1439
▁part	-1440
▁pazha	-1441
ixhnalo	-1442
▁pavy	-1443
▁raxzr	-1444
▁raxsta	-1445
▁daxpaln	-1446
▁gaxrado	-1447
isno	-1448
nyrg	-1449
rvaxm	-1450
shshy	-1451
▁dvax	-1452
▁razm	-1453
uxtsyo	-1454
▁vasto	-1455
ixmakra	-1456
zhaxvax	-1457
sf	-1458
ssa	-1459
izda	-1460
ssax	-1461
▁ava	-1462
▁pux	-1463
▁spu	-1464
▁zhd	-1465
▁zho	-1466
▁papy	-1467
▁trax	-1468
▁dasta	-1469
▁prava	-1470
▁apsuzhda	-1471
stkax	-1472
▁gaxla	-1473
▁kaxnf	-1474
▁naxru	-1475
▁paxsv	-1476
ixklara	-1477
tstvaxm	-1478
ot	-1479
ikl	-1480
ixkr	-1481
ixty	-1482
kupa	-1483
▁epo	-1484
▁spra	-1485
laxbax	-1486
raxdax	-1487
zhnaxh	-1488
▁kanfl	-1489
▁zaxpr	-1490
shaxnax	-1491
▁ynfarma	-1492
kr	-1493
gza	-1494
nku	-1495
daxk	-1496
ihko	-1497
▁sro	-1498
kspax	-1499
zbrax	-1500
▁blax	-1501
▁byva	-1502
▁rasmo	-1503
ixdaxsta	-1504
ixdlazhy	-1505
▁naxpravl	-1506
mk	-1507
ng	-1508
▁gu	-1509
ixabr	-1510
taxra	-1511
▁kanv	-1512
▁karo	-1513
baxrax	-1514
ixnnux	-1515
▁asvax	-1516
aftaxma	-1517
▁naxpax	-1518
▁udaxvl	-1519
dzo	-1520
ixba	-1521
ixdu	-1522
▁kto	-1523
ixaka	-1524
razhd	-1525
▁atsu	-1526
▁daby	-1527
▁nadzo	-1528
▁paxsa	-1529
ixskaxm	-1530
ixakampa	-1531
▁daxgavo	-1532
ixstaxrazhd	-1533
bla	-1534
iry	-1535
izho	-1536
zaxm	-1537
▁dvo	-1538
▁eva	-1539
ixrsa	-1540
spaln	-1541
▁apra	-1542
ixkabr	-1543
ixtpax	-1544
zaxnnax	-1545
▁prasho	-1546
▁gaxrats	-1547
tl	-1548
ixml	-1549
laga	-1550
▁vno	-1551
▁agro	-1552
▁maro	-1553
ixrava	-1554
▁paxmaga	-1555
slo	-1556
▁zu	-1557
nkaxf	-1558
▁satru	-1559
▁kaxrabl	-1560
naxtstsax	-1561
▁zb	-1562
ixtr	-1563
▁asa	-1564
mnaxm	-1565
naxla	-1566
▁marsh	-1567
ixv	-1568
▁ny	-1569
iska	-1570
ktux	-1571
▁apt	-1572
▁isku	-1573
ixrabo	-1574
ixzava	-1575
▁ustro	-1576
▁naxstra	-1577
lt	-1578
gno	-1579
pch	-1580
▁af	-1581
▁te	-1582
idno	-1583
jiva	-1584
erapo	-1585
gaxva	-1586
ispla	-1587
ntssk	-1588
puxsk	-1589
▁pyta	-1590
stvaxm	-1591
▁patho	-1592
▁rasma	-1593
▁stranu	-1594
▁saxtsya	-1595
▁haxrasho	-1596
ld	-1597
zd	-1598
uda	-1599
zhj	-1600
▁hl	-1601
axts	-1602
ixvy	-1603
shko	-1604
▁kux	-1605
lazhy	-1606
nstru	-1607
▁pamo	-1608
▁ysto	-1609
▁zado	-1610
staxvax	-1611
▁staxra	-1612
▁asnavny	-1613
lzhaxnnax	-1614
▁paxlnamo	-1615
rp	-1616
bna	-1617
spro	-1618
▁mar	-1619
baxra	-1620
ixalo	-1621
ixrnax	-1622
nastra	-1623
daxnnax	-1624
▁gaspro	-1625
▁naxrushe	-1626
abj	-1627
klo	-1628
ksp	-1629
kva	-1630
iplo	-1631
mnux	-1632
nktp	-1633
tava	-1634
▁halo	-1635
ixstra	-1636
▁krupn	-1637
llaxrax	-1638
▁paxdax	-1639
jaxmaxvax	-1640
▁saxglashe	-1641
kna	-1642
ixft	-1643
laxk	-1644
ndux	-1645
tkux	-1646
▁kaf	-1647
▁tsa	-1648
irzhd	-1649
mnaxh	-1650
▁kaza	-1651
▁palo	-1652
ixktra	-1653
ixraxm	-1654
▁paxpu	-1655
ktaxrax	-1656
▁saxatv	-1657
ixktrasta	-1658
hu	-1659
▁au	-1660
itso	-1661
shta	-1662
▁sma	-1663
smatr	-1664
▁grux	-1665
▁karma	-1666
ixrsana	-1667
rvaxvax	-1668
▁raxspa	-1669
▁ustano	-1670
▁gaxdavo	-1671
▁grazhda	-1672
hl	-1673
izna	-1674
pkax	-1675
tnux	-1676
▁kry	-1677
▁bala	-1678
▁kara	-1679
ixkaxv	-1680
ixravy	-1681
▁naxbl	-1682
▁straxha	-1683
irt	-1684
psk	-1685
daxh	-1686
fkux	-1687
prae	-1688
tuxs	-1689
ixbux	-1690
ixtva	-1691
nskux	-1692
shaxl	-1693
▁azna	-1694
▁luko	-1695
▁paho	-1696
▁vlax	-1697
▁ekspa	-1698
▁pradl	-1699
naxprae	-1700
saxtsyo	-1701
vnaxvax	-1702
▁mnaxga	-1703
▁gaxratsko	-1704
isy	-1705
duxd	-1706
▁inv	-1707
tsydu	-1708
▁abax	-1709
▁prapa	-1710
ixdlazhe	-1711
ixhnaxla	-1712
ixstvava	-1713
▁praxtsydu	-1714
rv	-1715
shsk	-1716
smax	-1717
rnaxm	-1718
▁pado	-1719
▁stse	-1720
▁tsyna	-1721
▁paxttv	-1722
▁raxspr	-1723
▁marshru	-1724
eta	-1725
isko	-1726
ixst	-1727
rstf	-1728
▁ugl	-1729
ixtsy	-1730
llaxr	-1731
nuxzhd	-1732
▁vaxzax	-1733
▁naxvago	-1734
▁raxshshy	-1735
fs	-1736
▁am	-1737
haxm	-1738
lkux	-1739
taxn	-1740
▁uha	-1741
ixshn	-1742
shaxk	-1743
▁asax	-1744
▁patr	-1745
▁yzra	-1746
▁sravn	-1747
▁stara	-1748
▁truda	-1749
▁ustra	-1750
▁zhyvu	-1751
ssaxvax	-1752
▁paxltara	-1753
▁staxrany	-1754
ihn	-1755
ikr	-1756
iks	-1757
rmy	-1758
guxd	-1759
isla	-1760
taxk	-1761
vgux	-1762
zavo	-1763
▁kvo	-1764
▁udo	-1765
▁yzm	-1766
kryva	-1767
shyny	-1768
▁adnu	-1769
▁kana	-1770
▁paso	-1771
▁pats	-1772
▁shla	-1773
▁turn	-1774
▁vzax	-1775
ixazhy	-1776
▁dakla	-1777
▁kaxmp	-1778
▁parla	-1779
gnuxtax	-1780
▁paxspa	-1781
hso	-1782
skr	-1783
ixrs	-1784
ixsh	-1785
laxh	-1786
pkux	-1787
▁sna	-1788
▁upa	-1789
▁ruka	-1790
▁tavo	-1791
▁pravo	-1792
ixstupl	-1793
kaxnada	-1794
nsaxvax	-1795
zvaxnax	-1796
▁daxlga	-1797
straxvax	-1798
ndaxksaxf	-1799
▁paxsazhy	-1800
▁vaxstupa	-1801
ixdaxstavl	-1802
raxvaxnnax	-1803
▁zaxkaxnada	-1804
▁vaxstaxnavl	-1805
adm	-1806
rva	-1807
tvo	-1808
▁ata	-1809
▁bro	-1810
▁imp	-1811
ixrtu	-1812
▁shtu	-1813
▁uslu	-1814
ixdava	-1815
ixglax	-1816
ixksax	-1817
izhygo	-1818
ndaxks	-1819
▁rasho	-1820
▁staro	-1821
atnashe	-1822
▁blaxga	-1823
▁enaxrg	-1824
▁zhurna	-1825
ixmaxkra	-1826
▁paxstra	-1827
tstvaxvax	-1828
▁saxzdava	-1829
dnux	-1830
grax	-1831
imno	-1832
irma	-1833
ixnk	-1834
zhny	-1835
▁glu	-1836
▁ito	-1837
mtsax	-1838
nkaxm	-1839
stkux	-1840
zhnux	-1841
▁savm	-1842
vaxdux	-1843
▁daxra	-1844
▁enyrg	-1845
▁jivro	-1846
▁raxba	-1847
▁raxzv	-1848
▁sagla	-1849
▁shyro	-1850
ixvasto	-1851
ixzhnax	-1852
raxvaxn	-1853
▁vaxspr	-1854
▁asnavno	-1855
▁haxrakt	-1856
raxvaxnax	-1857
▁raxsmatr	-1858
▁paxdaxrazha	-1859
izm	-1860
rkt	-1861
spy	-1862
slux	-1863
vaxn	-1864
▁sho	-1865
▁tro	-1866
bnaxm	-1867
ixizv	-1868
shlax	-1869
▁kako	-1870
▁kapu	-1871
▁magl	-1872
▁para	-1873
▁pakry	-1874
axtsaxf	-1875
ixzhyva	-1876
znaxvax	-1877
▁asnava	-1878
shlaxvax	-1879
nf	-1880
rz	-1881
zr	-1882
idv	-1883
ksa	-1884
kta	-1885
zvo	-1886
ftsy	-1887
izra	-1888
▁ahra	-1889
▁kama	-1890
▁plax	-1891
▁zaku	-1892
straxm	-1893
▁atkro	-1894
▁glava	-1895
▁pazvo	-1896
▁kaxsma	-1897
▁raxspalo	-1898
lko	-1899
rga	-1900
rsa	-1901
shna	-1902
▁axt	-1903
▁tux	-1904
ixpra	-1905
rskax	-1906
traxm	-1907
▁atna	-1908
▁spart	-1909
▁naxvax	-1910
▁paxlazhy	-1911
▁vaxpuska	-1912
udbo	-1913
ixala	-1914
ixizm	-1915
▁naxd	-1916
▁saby	-1917
▁skax	-1918
▁upax	-1919
▁fudbo	-1920
raxstra	-1921
tskaxvax	-1922
▁raxspraxstra	-1923
ntaxn	-1924
▁spro	-1925
▁pusty	-1926
▁inastra	-1927
ixtuxtsyo	-1928
▁raxzgavo	-1929
pt	-1930
vd	-1931
aba	-1932
ibr	-1933
irg	-1934
kte	-1935
kty	-1936
dava	-1937
ixms	-1938
izhu	-1939
krux	-1940
zdaxn	-1941
▁stre	-1942
ntraba	-1943
vguxst	-1944
▁bakte	-1945
▁masta	-1946
ixstrux	-1947
rgaxnax	-1948
taxmnax	-1949
▁blaxgaxda	-1950
▁vaxzrasta	-1951
▁tsaxntraba	-1952
bn	-1953
bro	-1954
idm	-1955
ido	-1956
indu	-1957
ixng	-1958
ixsa	-1959
masf	-1960
odax	-1961
▁uka	-1962
duxsa	-1963
ixtra	-1964
jaxgh	-1965
nkaxh	-1966
vazhe	-1967
▁shta	-1968
ixraxf	-1969
▁zaxvax	-1970
glaxsava	-1971
▁gaxlasa	-1972
▁prastra	-1973
▁vaxzaxbna	-1974
▁saxglaxsava	-1975
mbl	-1976
ndy	-1977
sny	-1978
sro	-1979
▁gl	-1980
ixdy	-1981
laxl	-1982
tsux	-1983
▁yzb	-1984
ixsna	-1985
staxv	-1986
▁fana	-1987
▁jizy	-1988
▁sasu	-1989
▁varo	-1990
laxtax	-1991
lzhnax	-1992
▁naxpr	-1993
▁slava	-1994
skaxmux	-1995
▁gaxrazha	-1996
hux	-1997
iba	-1998
ipr	-1999
itr	-2000
nty	-2001
idvy	-2002
istr	-2003
itsa	-2004
kspa	-2005
maxf	-2006
▁asv	-2007
▁dno	-2008
▁idu	-2009
ixgra	-2010
ixzvy	-2011
lnaxm	-2012
nkuxr	-2013
tstsy	-2014
▁adda	-2015
▁atpu	-2016
▁salo	-2017
▁vady	-2018
▁apsta	-2019
▁bukva	-2020
▁zasta	-2021
ixvysha	-2022
ktaxrux	-2023
laxsava	-2024
▁aerapo	-2025
▁astava	-2026
▁maxnax	-2027
▁muxzhy	-2028
▁shysna	-2029
shynstva	-2030
▁gaxrada	-2031
▁kaxntra	-2032
▁dvaxtstsy	-2033
▁gaxlaxsava	-2034
▁dr	-2035
▁sk	-2036
eksp	-2037
ivro	-2038
ravl	-2039
rvux	-2040
spra	-2041
▁fku	-2042
▁fru	-2043
▁izb	-2044
▁sty	-2045
▁ukr	-2046
bazhd	-2047
ixgax	-2048
ixshy	-2049
rhnax	-2050
tsaxm	-2051
zduxh	-2052
▁abma	-2053
▁atkl	-2054
▁malo	-2055
▁mgna	-2056
▁skla	-2057
▁ugro	-2058
ixbyva	-2059
vaxmux	-2060
▁puxbl	-2061
▁zaxla	-2062
▁zaxpa	-2063
baxrato	-2064
ixparta	-2065
ixplavy	-2066
izashlo	-2067
nspaxrt	-2068
skaxzax	-2069
▁ablada	-2070
▁daxsta	-2071
▁kantsa	-2072
▁lushko	-2073
▁nuzhny	-2074
▁paxstu	-2075
▁praxha	-2076
▁paxkupa	-2077
▁vaxstaxna	-2078
▁laxbaxrato	-2079
arb	-2080
imy	-2081
irp	-2082
lka	-2083
mmy	-2084
rkv	-2085
ispo	-2086
ntux	-2087
raxs	-2088
sslu	-2089
uxda	-2090
zaxk	-2091
▁art	-2092
▁bla	-2093
▁fla	-2094
▁hva	-2095
▁ugo	-2096
▁uhu	-2097
▁vza	-2098
▁yta	-2099
ekano	-2100
▁kaxm	-2101
▁usto	-2102
baxzhd	-2103
▁glaba	-2104
▁kafka	-2105
▁kaxmu	-2106
ixspako	-2107
▁bankro	-2108
▁dvuhso	-2109
zhnaxvax	-2110
▁saxprax	-2111
nkaxfskax	-2112
▁paxstupa	-2113
▁blaxgaxpr	-2114
rzhaxtstsax	-2115
▁asvaxbaxzhd	-2116
▁paxstaxnavl	-2117
he	-2118
atv	-2119
mba	-2120
▁av	-2121
rtux	-2122
▁pas	-2123
▁uby	-2124
itshe	-2125
ksafo	-2126
znaxn	-2127
▁atka	-2128
▁rasl	-2129
fskaxm	-2130
ixzako	-2131
laxdax	-2132
raxnux	-2133
staxfk	-2134
▁ugalo	-2135
zdaxnax	-2136
▁kaxnku	-2137
▁mashta	-2138
ixsaxsta	-2139
ixvaxsta	-2140
zhaxstvax	-2141
▁taxksafo	-2142
ixtpaxlaga	-2143
▁kaxsaxtsyo	-2144
ata	-2145
hva	-2146
nde	-2147
zdu	-2148
▁sf	-2149
inda	-2150
irho	-2151
▁hvo	-2152
ixzax	-2153
▁anta	-2154
▁apla	-2155
▁duho	-2156
▁jimu	-2157
▁rask	-2158
▁suvo	-2159
▁zalo	-2160
▁zhdu	-2161
baxlax	-2162
ishshe	-2163
zhdaxm	-2164
▁azhax	-2165
▁saxna	-2166
▁skaza	-2167
▁tynde	-2168
ixrskax	-2169
rtaxvax	-2170
vaxnnax	-2171
▁vaxaru	-2172
staxfkax	-2173
vuxshkax	-2174
▁atkryva	-2175
▁prashla	-2176
▁vaxdava	-2177
fy	-2178
tm	-2179
zg	-2180
ndr	-2181
rba	-2182
rto	-2183
▁se	-2184
▁uz	-2185
haxt	-2186
idlo	-2187
ixkv	-2188
jaxn	-2189
laxt	-2190
▁izj	-2191
ixksa	-2192
ixnux	-2193
rdaxv	-2194
▁insp	-2195
▁pato	-2196
vnaxgh	-2197
▁nashl	-2198
faxrmax	-2199
▁jizyka	-2200
▁naxpada	-2201
▁kaxsmana	-2202
faxrmaxtsyo	-2203
idr	-2204
skv	-2205
faxrm	-2206
nktaxf	-2207
▁vaxra	-2208
taxrnax	-2209
▁maxskv	-2210
▁sfaxrm	-2211
nsaxvaxh	-2212
staxraxf	-2213
▁axntyrne	-2214
▁vaxstupl	-2215
kaxtaxraxm	-2216
ixstruxktux	-2217
ikv	-2218
rts	-2219
iksa	-2220
ipla	-2221
rksk	-2222
rtsm	-2223
stru	-2224
▁shl	-2225
ixraba	-2226
▁baxla	-2227
▁zasto	-2228
gaxvaxh	-2229
ixslaro	-2230
ixkaxtsyo	-2231
idy	-2232
nzu	-2233
bnux	-2234
ptax	-2235
▁mra	-2236
▁zva	-2237
▁paxr	-2238
ixagno	-2239
ixasta	-2240
ixzaru	-2241
shaxgh	-2242
▁axdna	-2243
ixsnaka	-2244
▁naxstu	-2245
▁tsynzu	-2246
▁upaxtr	-2247
▁ukrashe	-2248
▁saxtsaxa	-2249
dm	-2250
dr	-2251
fku	-2252
ngl	-2253
sts	-2254
uby	-2255
zmo	-2256
▁py	-2257
▁vu	-2258
▁zm	-2259
irda	-2260
izax	-2261
kaxf	-2262
tyrv	-2263
zaxn	-2264
zrax	-2265
▁ams	-2266
▁uvl	-2267
inzha	-2268
ixaba	-2269
ixdua	-2270
ixrka	-2271
jaxsh	-2272
mvaxl	-2273
nktax	-2274
▁abla	-2275
▁axdm	-2276
▁fstu	-2277
▁mazu	-2278
▁nabo	-2279
▁naxt	-2280
▁shka	-2281
buxzhd	-2282
faxgra	-2283
irzhda	-2284
ixagra	-2285
ixplax	-2286
laxbux	-2287
rnaxgh	-2288
▁fspax	-2289
▁maxks	-2290
baxraxf	-2291
baxvaxl	-2292
ftaxrax	-2293
ixnskax	-2294
ixvazmo	-2295
taxraxv	-2296
▁maskva	-2297
▁paxstavl	-2298
▁vaxzbuxzhd	-2299
rl	-2300
ava	-2301
dba	-2302
fsh	-2303
gba	-2304
idl	-2305
imp	-2306
ply	-2307
vza	-2308
zhu	-2309
baxm	-2310
haxl	-2311
hnux	-2312
idro	-2313
ipra	-2314
ispa	-2315
kava	-2316
kaxl	-2317
krax	-2318
nuxd	-2319
trux	-2320
znux	-2321
zvax	-2322
▁abr	-2323
▁nad	-2324
▁pae	-2325
▁sao	-2326
ixapa	-2327
ixnta	-2328
ixudo	-2329
nduxm	-2330
rsaxf	-2331
rvnux	-2332
zhaxh	-2333
▁asla	-2334
▁izba	-2335
▁shpa	-2336
▁uzha	-2337
ixpara	-2338
maxvax	-2339
pshaxh	-2340
rshkux	-2341
saxnax	-2342
traxsl	-2343
▁drugo	-2344
▁faxku	-2345
▁naxsa	-2346
▁nazna	-2347
▁talpa	-2348
▁zapro	-2349
▁zaxru	-2350
ftaxtra	-2351
intyrne	-2352
ixntsax	-2353
▁atmasf	-2354
▁fuxdba	-2355
▁maxvza	-2356
▁nastro	-2357
ixtratsy	-2358
▁apsuzhd	-2359
▁kaxmpra	-2360
▁shlagba	-2361
imaxatnashe	-2362
atm	-2363
irk	-2364
rne	-2365
snu	-2366
sua	-2367
tkl	-2368
ubu	-2369
znu	-2370
▁fr	-2371
▁hr	-2372
ihch	-2373
into	-2374
irno	-2375
ixdv	-2376
ixmu	-2377
jimu	-2378
jivy	-2379
laxn	-2380
lurg	-2381
muxt	-2382
rpax	-2383
vdax	-2384
▁bux	-2385
▁due	-2386
▁paf	-2387
▁ssy	-2388
▁ura	-2389
▁ysl	-2390
irknu	-2391
ixrsp	-2392
ixvna	-2393
raxgh	-2394
rmaxm	-2395
tazhe	-2396
zhaxl	-2397
▁anax	-2398
▁atra	-2399
▁davo	-2400
▁grax	-2401
▁paku	-2402
▁papr	-2403
▁shys	-2404
▁tamu	-2405
ixdydu	-2406
ixzhax	-2407
jaxtax	-2408
raxbax	-2409
▁arama	-2410
▁dasto	-2411
▁fashy	-2412
▁mashe	-2413
▁paxka	-2414
▁saxha	-2415
▁turne	-2416
▁zaxkr	-2417
baxrnax	-2418
ixatsyo	-2419
ixvnava	-2420
ndaxvax	-2421
▁aznako	-2422
▁shysto	-2423
▁strana	-2424
▁vaxskr	-2425
ixtaxlurg	-2426
raxvaxlax	-2427
shskaxvax	-2428
stvaxvaxl	-2429
▁gaxratsk	-2430
▁naxstupa	-2431
ixzhaxgaro	-2432
nspaxrtnax	-2433
▁maxnaxsty	-2434
ixglaxshyny	-2435
ixvaxtstsax	-2436
▁asvaxbazhd	-2437
axf	-2438
izr	-2439
lch	-2440
mno	-2441
ndu	-2442
nzh	-2443
rmo	-2444
igna	-2445
ishk	-2446
ixab	-2447
ixrk	-2448
jizy	-2449
▁afo	-2450
▁agn	-2451
▁aho	-2452
▁shp	-2453
▁smy	-2454
baxsk	-2455
ixtpa	-2456
ixtsa	-2457
ktsyo	-2458
pnaxm	-2459
raxma	-2460
vaxgh	-2461
znaxs	-2462
▁asva	-2463
▁baro	-2464
▁fsta	-2465
▁izax	-2466
▁nano	-2467
▁narv	-2468
▁samn	-2469
enaxrg	-2470
grazhd	-2471
ixdatu	-2472
ixkrax	-2473
jaxmux	-2474
puxskn	-2475
rzhaxt	-2476
skaxha	-2477
skaxnf	-2478
vuxshk	-2479
znaxsa	-2480
▁atkla	-2481
▁garmo	-2482
▁nasto	-2483
▁paxra	-2484
▁stalo	-2485
baxraxm	-2486
ixrasko	-2487
jaxnnax	-2488
rvaxnax	-2489
taxnnax	-2490
▁draxma	-2491
▁kantsu	-2492
▁pragno	-2493
▁daxlzhn	-2494
▁gruxzax	-2495
▁raxbako	-2496
▁vaxapsh	-2497
kspaxrtax	-2498
▁paxstupl	-2499
rnaxtstsax	-2500
▁naxlaxgax	-2501
▁vaxpuxskn	-2502
ixzhduxgaro	-2503
▁praxdalzhy	-2504
nkuxrsnaxvax	-2505
irn	-2506
ptu	-2507
tka	-2508
▁ly	-2509
ishl	-2510
ntsy	-2511
tavl	-2512
▁ira	-2513
▁lux	-2514
▁yra	-2515
ixnga	-2516
raxsl	-2517
rnava	-2518
rtaxh	-2519
ruzha	-2520
rvaxf	-2521
rvaxh	-2522
stmax	-2523
tstux	-2524
tstva	-2525
uxrax	-2526
zvrax	-2527
▁abru	-2528
▁axrb	-2529
▁kamu	-2530
▁kaxa	-2531
▁naxu	-2532
▁pago	-2533
▁zapa	-2534
blasno	-2535
ixfarm	-2536
lkaxga	-2537
▁fuxnk	-2538
▁glubo	-2539
▁nagru	-2540
▁nasta	-2541
▁paxtp	-2542
▁ravno	-2543
draxvax	-2544
ixratvo	-2545
ntstvax	-2546
paxdnax	-2547
▁naxrma	-2548
▁saxmax	-2549
▁slazhy	-2550
▁truxda	-2551
tstuxpax	-2552
▁akruzha	-2553
▁alkaxga	-2554
▁asnavna	-2555
▁vaxdala	-2556
daxvaxlax	-2557
▁axtnashe	-2558
▁kaxrnava	-2559
▁naxstupl	-2560
▁paxlazhe	-2561
▁vaxzvrax	-2562
zhaxntsaxf	-2563
zhaxtstsax	-2564
▁paxstrada	-2565
▁raxspaxlaga	-2566
rgh	-2567
vda	-2568
▁al	-2569
bzhe	-2570
insp	-2571
nsux	-2572
uxga	-2573
vaka	-2574
▁hru	-2575
▁izu	-2576
▁pch	-2577
▁sht	-2578
▁uga	-2579
▁uva	-2580
▁vdo	-2581
atpra	-2582
maxgh	-2583
nsaxf	-2584
zmaxm	-2585
▁afto	-2586
▁syro	-2587
▁zaby	-2588
▁zama	-2589
▁zapr	-2590
baxkna	-2591
ixvaro	-2592
nskaxm	-2593
rzhaxn	-2594
snavno	-2595
▁kursa	-2596
▁raxma	-2597
▁tagda	-2598
▁vagza	-2599
ixktsyo	-2600
ixtstsa	-2601
uxgasla	-2602
▁advaka	-2603
ndaxksax	-2604
taxrskax	-2605
▁apravda	-2606
▁paxlugo	-2607
ixabaxkna	-2608
nspaxrtax	-2609
▁axsnavno	-2610
▁paxltary	-2611
zhuxtstsax	-2612
mm	-2613
izb	-2614
uba	-2615
ikra	-2616
klax	-2617
rzhe	-2618
stsy	-2619
▁atr	-2620
▁ygr	-2621
kaxla	-2622
ptsax	-2623
rtvax	-2624
▁apsa	-2625
▁vzhy	-2626
laxnax	-2627
▁padro	-2628
▁papra	-2629
▁paxta	-2630
▁vazhn	-2631
▁zhyvo	-2632
blaxkax	-2633
ishazhd	-2634
▁prashe	-2635
▁raxvna	-2636
▁yspaln	-2637
▁saxnato	-2638
▁dvatstsa	-2639
▁vaxaruzho	-2640
▁infaxrmaxtsyo	-2641
rka	-2642
ahra	-2643
ikva	-2644
izdy	-2645
magn	-2646
varo	-2647
igrax	-2648
istva	-2649
ixrna	-2650
rdnax	-2651
spyta	-2652
▁agra	-2653
▁atla	-2654
▁yzax	-2655
daxmstv	-2656
laxdaxm	-2657
▁abaxgr	-2658
▁afstra	-2659
▁startu	-2660
nkuxrsax	-2661
▁atrazha	-2662
▁paxsparta	-2663
▁paxsparto	-2664
▁straxhavy	-2665
mna	-2666
gara	-2667
irvy	-2668
ixat	-2669
spaso	-2670
▁razl	-2671
▁zatm	-2672
▁dalgo	-2673
▁paxga	-2674
zhdaxvax	-2675
▁atpravl	-2676
▁gaxdavy	-2677
▁spartsm	-2678
ixnskaxvax	-2679
fta	-2680
smo	-2681
▁apslu	-2682
▁kaxnv	-2683
jaxl	-2684
kaxn	-2685
mtax	-2686
▁ulu	-2687
nsaxv	-2688
smaxs	-2689
▁atlo	-2690
▁jipo	-2691
▁kupa	-2692
▁talp	-2693
axhnux	-2694
nuxlax	-2695
▁dasro	-2696
▁kamfo	-2697
▁padvo	-2698
▁ssyla	-2699
▁vazro	-2700
ixgaxva	-2701
ixpagra	-2702
ixrkamp	-2703
▁skryva	-2704
▁glaxbax	-2705
rr	-2706
zl	-2707
dva	-2708
ivr	-2709
ivu	-2710
ngo	-2711
pru	-2712
rao	-2713
rmu	-2714
inno	-2715
irko	-2716
maga	-2717
paxm	-2718
psux	-2719
rpla	-2720
tlax	-2721
tsna	-2722
vaxv	-2723
vmax	-2724
vrax	-2725
▁abm	-2726
▁ark	-2727
▁blo	-2728
▁uho	-2729
▁upo	-2730
▁yko	-2731
ixmna	-2732
ixnna	-2733
ixtsk	-2734
laxva	-2735
skaxh	-2736
skaza	-2737
zhyly	-2738
▁akax	-2739
▁apax	-2740
▁arha	-2741
▁balt	-2742
▁bava	-2743
▁baxm	-2744
▁padz	-2745
▁pasa	-2746
shaxva	-2747
▁davno	-2748
▁glaza	-2749
▁mango	-2750
▁plaka	-2751
▁rassa	-2752
▁supru	-2753
▁valna	-2754
ixktava	-2755
ixstaxm	-2756
nstrukt	-2757
rstvaxm	-2758
zhaxstv	-2759
▁astavl	-2760
▁atstra	-2761
▁faxrao	-2762
▁gastro	-2763
▁jizyku	-2764
▁kraxsa	-2765
▁praxdl	-2766
▁srazhe	-2767
▁zarpla	-2768
ixstvaxm	-2769
▁daxbyva	-2770
▁kaxtalo	-2771
▁naxkanu	-2772
▁uxvazhe	-2773
▁vaxpaln	-2774
ixmanstra	-2775
▁paxzhyly	-2776
▁kaxnstrukt	-2777
rtaxfskaxvax	-2778
abv	-2779
bma	-2780
flo	-2781
igm	-2782
inf	-2783
itl	-2784
mbu	-2785
ntk	-2786
pta	-2787
shp	-2788
upa	-2789
zvu	-2790
▁pn	-2791
adna	-2792
daxl	-2793
dzax	-2794
faxm	-2795
ikry	-2796
imso	-2797
itno	-2798
ivno	-2799
ixkl	-2800
kalo	-2801
kstr	-2802
lavo	-2803
napo	-2804
razv	-2805
rshk	-2806
rshy	-2807
rtse	-2808
saxn	-2809
shku	-2810
skny	-2811
taxa	-2812
ttax	-2813
▁apu	-2814
▁fsl	-2815
▁ita	-2816
▁nra	-2817
▁tka	-2818
▁vbl	-2819
bnaxh	-2820
buzhd	-2821
daxgh	-2822
gnuxt	-2823
iktro	-2824
irdlo	-2825
ixnda	-2826
ixvma	-2827
kamba	-2828
mskax	-2829
ntaxh	-2830
zhyga	-2831
▁aera	-2832
▁apho	-2833
▁arkt	-2834
▁dama	-2835
▁dzhy	-2836
▁izza	-2837
▁kupo	-2838
▁razb	-2839
▁suho	-2840
▁vada	-2841
▁zhda	-2842
ekaxna	-2843
ixkala	-2844
ixngax	-2845
ixprax	-2846
ixrtuo	-2847
paxlax	-2848
raxnax	-2849
taxrna	-2850
zaxkux	-2851
zbraxn	-2852
▁axkax	-2853
▁bastu	-2854
▁insta	-2855
▁kaxma	-2856
▁kuxba	-2857
▁marsk	-2858
▁maxly	-2859
▁palko	-2860
▁partr	-2861
▁plavu	-2862
▁puxga	-2863
▁rasko	-2864
▁ruxka	-2865
▁shyde	-2866
▁susta	-2867
▁sygra	-2868
▁talch	-2869
▁zaslu	-2870
▁zhylu	-2871
braxzhy	-2872
ixabaru	-2873
ixargax	-2874
ixndava	-2875
ixntsya	-2876
ixslaka	-2877
plaxtax	-2878
staxrax	-2879
straxna	-2880
tstvaxh	-2881
znaxnax	-2882
▁aslabl	-2883
▁axkspa	-2884
▁ekaxla	-2885
▁kantso	-2886
▁prasto	-2887
▁raxzga	-2888
▁raxzhd	-2889
▁shampa	-2890
▁suxbma	-2891
▁valshe	-2892
▁vnushy	-2893
ftaxzavo	-2894
ixplaxma	-2895
ixrshyny	-2896
ixtskaza	-2897
izaxkavo	-2898
paxdnaxh	-2899
praxkuro	-2900
rtvaxvax	-2901
zhaxskax	-2902
znaxnnax	-2903
▁abustro	-2904
▁aeraflo	-2905
▁atpuska	-2906
▁auktsyo	-2907
▁axdnamu	-2908
▁axspaln	-2909
▁inkamba	-2910
▁paxrlax	-2911
▁praxvax	-2912
▁zaxlaty	-2913
▁zaxtrux	-2914
ixrnaxvax	-2915
▁arfaxgra	-2916
▁asaxtsya	-2917
▁atpuskny	-2918
▁paxkryva	-2919
▁paxlkavo	-2920
▁vaxrazha	-2921
ixrskaxvax	-2922
laxgaxrazv	-2923
▁naxsazhda	-2924
▁straxhava	-2925
nspaxrtnaxh	-2926
raxvaxnnaxgh	-2927
ak	-2928
ps	-2929
afr	-2930
dny	-2931
dru	-2932
fch	-2933
gha	-2934
ift	-2935
ils	-2936
lgo	-2937
msk	-2938
skl	-2939
smy	-2940
tro	-2941
ykt	-2942
zny	-2943
▁ft	-2944
baxr	-2945
drax	-2946
faxf	-2947
fstr	-2948
ftsa	-2949
gata	-2950
irga	-2951
isnu	-2952
isny	-2953
ixnt	-2954
ixry	-2955
ixsp	-2956
izdo	-2957
kvax	-2958
pnux	-2959
ppux	-2960
rfax	-2961
taxl	-2962
vaxr	-2963
▁arm	-2964
▁azo	-2965
▁dna	-2966
▁mla	-2967
▁umo	-2968
▁yzy	-2969
aktse	-2970
fagra	-2971
fshux	-2972
ixatr	-2973
ixrha	-2974
ixrux	-2975
ixtsh	-2976
kruxk	-2977
lkago	-2978
naxva	-2979
ndaxf	-2980
ndaxh	-2981
odaxm	-2982
raxst	-2983
rshax	-2984
rvnax	-2985
tsaxn	-2986
zaxfr	-2987
zhzhe	-2988
▁ansa	-2989
▁apsl	-2990
▁bana	-2991
▁daxt	-2992
▁egza	-2993
▁gary	-2994
▁glux	-2995
▁inax	-2996
▁izda	-2997
▁kafe	-2998
▁kalu	-2999
▁kanf	-3000
▁maso	-3001
▁napo	-3002
▁pako	-3003
▁sado	-3004
▁safs	-3005
▁shva	-3006
▁spax	-3007
▁suma	-3008
▁syru	-3009
▁taxr	-3010
▁vzlo	-3011
▁yzda	-3012
▁zato	-3013
infarm	-3014
ixmago	-3015
ixnava	-3016
ixnaxm	-3017
ixrzhd	-3018
ixtava	-3019
ixtvax	-3020
ixuklo	-3021
ixumax	-3022
ixvaxh	-3023
mnaxtu	-3024
mvaxly	-3025
nnaxma	-3026
ntsaxm	-3027
ntsaxp	-3028
rgaxta	-3029
ruxzhy	-3030
shlago	-3031
shshax	-3032
straxf	-3033
uvazhe	-3034
zaxvux	-3035
▁agrax	-3036
▁aktsy	-3037
▁akupa	-3038
▁axksp	-3039
▁baxga	-3040
▁bugha	-3041
▁daxva	-3042
▁dusha	-3043
▁faxrm	-3044
▁hvata	-3045
▁kaznu	-3046
▁nagra	-3047
▁pagru	-3048
▁papro	-3049
▁patsh	-3050
▁paxdv	-3051
▁paxpa	-3052
▁puska	-3053
▁rasta	-3054
▁raxzb	-3055
▁sagra	-3056
▁staxr	-3057
▁suxps	-3058
▁targu	-3059
▁trudo	-3060
▁tsyny	-3061
▁upako	-3062
▁valny	-3063
▁vasho	-3064
▁vaxsp	-3065
▁vyska	-3066
▁zaxhl	-3067
▁zaxta	-3068
▁zharu	-3069
▁znako	-3070
braxnax	-3071
daxraxf	-3072
itstsax	-3073
ixdusma	-3074
ixksnax	-3075
ixnaxdl	-3076
ixraxpr	-3077
ixshyna	-3078
ixtsaxm	-3079
paxratu	-3080
paxtnax	-3081
rnaxmux	-3082
saxbaxm	-3083
snaxmux	-3084
tnaxmux	-3085
▁astano	-3086
▁ekstra	-3087
▁guxmax	-3088
▁izaxbr	-3089
▁izgata	-3090
▁paxtha	-3091
▁rastro	-3092
▁vystra	-3093
jaxfshax	-3094
ndaxvaxh	-3095
nspaxrta	-3096
skaxzaxl	-3097
taxntsya	-3098
zhnaxafr	-3099
▁apstano	-3100
▁arfagra	-3101
▁atlazhy	-3102
▁daxrava	-3103
▁daxtykt	-3104
▁kaxnsax	-3105
▁kraxvax	-3106
▁paxdaho	-3107
▁paxdrax	-3108
▁paxpada	-3109
▁paxvaro	-3110
▁rashshy	-3111
▁zaxpaln	-3112
ixgaxtavl	-3113
ixsaxabra	-3114
nuxtstsax	-3115
zaxvaxvax	-3116
▁paxdasho	-3117
▁paxvysha	-3118
kaxtaxraxh	-3119
vaxnnaxvax	-3120
▁praxvasla	-3121
▁raxznagla	-3122
▁shaxzaxfr	-3123
▁staxrtava	-3124
▁praxshlago	-3125
▁kraxvaxabra	-3126
▁paxtaxntsya	-3127
gm	-3128
gz	-3129
ht	-3130
iu	-3131
ms	-3132
nh	-3133
nl	-3134
pp	-3135
akt	-3136
asa	-3137
azo	-3138
bno	-3139
dno	-3140
dra	-3141
iby	-3142
idj	-3143
ilk	-3144
rpa	-3145
rpu	-3146
sht	-3147
tko	-3148
tku	-3149
ubl	-3150
vbo	-3151
asax	-3152
faxh	-3153
irty	-3154
iskl	-3155
itny	-3156
ixfa	-3157
lgux	-3158
mkux	-3159
naxa	-3160
nkto	-3161
rafo	-3162
ravn	-3163
ruxs	-3164
usto	-3165
uzhd	-3166
uzhy	-3167
vaxt	-3168
▁ate	-3169
▁aza	-3170
▁fta	-3171
▁pal	-3172
▁svy	-3173
▁vvo	-3174
▁ymp	-3175
▁zdv	-3176
axlax	-3177
axrax	-3178
draxh	-3179
fpada	-3180
irsho	-3181
iskux	-3182
ixsha	-3183
ixzna	-3184
jinta	-3185
kaxta	-3186
laxta	-3187
mzhax	-3188
naxbl	-3189
ntrax	-3190
skarb	-3191
vaxna	-3192
vrapo	-3193
zdaxm	-3194
zhuxt	-3195
▁alma	-3196
▁apto	-3197
▁arla	-3198
▁avga	-3199
▁duha	-3200
▁kalo	-3201
▁mara	-3202
▁mush	-3203
▁padr	-3204
▁pala	-3205
▁rama	-3206
▁upla	-3207
▁vzgl	-3208
▁zabo	-3209
▁zaha	-3210
irstva	-3211
ixgato	-3212
ixkako	-3213
ixkavo	-3214
ixradv	-3215
ixtsux	-3216
jaxnna	-3217
llaxra	-3218
ntraxm	-3219
ssazda	-3220
tsazna	-3221
▁abaru	-3222
▁adgru	-3223
▁anato	-3224
▁apara	-3225
▁azdax	-3226
▁bartu	-3227
▁dabra	-3228
▁fragm	-3229
▁kampr	-3230
▁kanta	-3231
▁kasnu	-3232
▁kavbo	-3233
▁masla	-3234
▁myshl	-3235
▁nastu	-3236
▁pafto	-3237
▁pasvo	-3238
▁paxrt	-3239
▁smatr	-3240
▁staka	-3241
▁stala	-3242
▁tsaxr	-3243
▁vaxzm	-3244
baxskax	-3245
ixapazo	-3246
ixspaso	-3247
ixtpasy	-3248
ixzuslo	-3249
ixzysho	-3250
mnaxvax	-3251
shynkto	-3252
shynstv	-3253
zhaxmax	-3254
zhnaxgh	-3255
▁askarb	-3256
▁atstsa	-3257
▁gaxrba	-3258
▁ispaln	-3259
▁kaxnsu	-3260
▁marsko	-3261
▁maskvu	-3262
▁nuzhna	-3263
▁paxtkl	-3264
▁prasty	-3265
▁raskru	-3266
▁shysso	-3267
▁sluzhe	-3268
▁tsyklo	-3269
▁ynstru	-3270
▁zashla	-3271
▁zhanda	-3272
braxnnax	-3273
ixonaxbl	-3274
ixrvaxna	-3275
nskaxmux	-3276
rskaxvax	-3277
tsaxanax	-3278
zbraxnax	-3279
▁mnaxgax	-3280
▁naxravn	-3281
▁paxbyva	-3282
▁paxdala	-3283
▁vaxraba	-3284
jaxnnaslu	-3285
kaxtastro	-3286
shshaxvax	-3287
sluxshaxl	-3288
zbraxnnax	-3289
▁azhaxata	-3290
▁saxfpada	-3291
kspaxrtnax	-3292
mpaxrtnaxh	-3293
▁azdaxravl	-3294
▁paxtsazna	-3295
▁saxaruzhe	-3296
▁staxvrapo	-3297
▁vaxssazda	-3298
▁vaxzrasla	-3299
▁vaxzraslo	-3300
stvaxvaxnax	-3301
▁vaxshynkto	-3302
▁naxtsaxanax	-3303
au	-3304
dro	-3305
dvo	-3306
fka	-3307
ggo	-3308
igu	-3309
ipt	-3310
irb	-3311
itm	-3312
kch	-3313
shr	-3314
ssk	-3315
apsh	-3316
baxl	-3317
insa	-3318
islu	-3319
ispy	-3320
ixdz	-3321
kavu	-3322
ksua	-3323
mstv	-3324
raxd	-3325
saxk	-3326
vaku	-3327
vgax	-3328
zaxv	-3329
▁aku	-3330
▁arg	-3331
▁axk	-3332
▁esk	-3333
▁fha	-3334
▁skv	-3335
abaro	-3336
buxsa	-3337
iftsy	-3338
ingra	-3339
ixgla	-3340
ixrma	-3341
ixstu	-3342
izato	-3343
kashe	-3344
kaxmn	-3345
raxkt	-3346
shkux	-3347
shnux	-3348
shyna	-3349
slava	-3350
stuxb	-3351
taxry	-3352
tstra	-3353
vaxza	-3354
▁atno	-3355
▁evax	-3356
▁kuso	-3357
▁lavu	-3358
▁pasr	-3359
▁subo	-3360
▁vdvo	-3361
baxpra	-3362
ixtavy	-3363
laxlax	-3364
ntsaxv	-3365
tshaxm	-3366
▁glazu	-3367
▁kvaza	-3368
▁maxdy	-3369
▁namno	-3370
▁pashl	-3371
▁paxru	-3372
▁pravl	-3373
▁shaga	-3374
▁zaxma	-3375
baxraxh	-3376
ixkafka	-3377
ixnazho	-3378
ixstsax	-3379
ixtsypa	-3380
rgaxsna	-3381
shaxlax	-3382
▁abrazu	-3383
▁brazhe	-3384
▁paxdza	-3385
▁prasro	-3386
▁spanta	-3387
▁staggo	-3388
▁strano	-3389
▁tarzhe	-3390
▁uvazha	-3391
▁vlazhe	-3392
▁zaxmax	-3393
baxraxgh	-3394
ixablada	-3395
ixnnaxgh	-3396
ktaxraxf	-3397
laxtaxva	-3398
nsaxvaxm	-3399
uxraxkra	-3400
▁astaxna	-3401
▁intyrne	-3402
▁naxrmax	-3403
▁paxdava	-3404
▁paxlasu	-3405
▁paxtamu	-3406
▁saxksua	-3407
▁saxvaku	-3408
▁zaxlato	-3409
ixastaxna	-3410
ixngaxvax	-3411
vuxshkaxm	-3412
▁axblasno	-3413
▁gruxzavo	-3414
▁haxraxkt	-3415
▁luxkashe	-3416
▁saxglaso	-3417
▁truxdavo	-3418
draxvaxvax	-3419
ixnsaxtsyo	-3420
▁naxgrazhd	-3421
rgaxsnabzhe	-3422
skaxzaxnnax	-3423
▁zaxmaxslava	-3424
fu	-3425
aru	-3426
lku	-3427
ppy	-3428
rgl	-3429
rtf	-3430
ugl	-3431
uko	-3432
utv	-3433
zhb	-3434
idny	-3435
ilax	-3436
ixrm	-3437
luxa	-3438
rmux	-3439
rpux	-3440
shka	-3441
tvra	-3442
▁ada	-3443
▁uta	-3444
fkaxh	-3445
ftaxf	-3446
ixzux	-3447
pnaxh	-3448
pramy	-3449
rkafa	-3450
tmaxh	-3451
tsaxh	-3452
▁hadu	-3453
▁karm	-3454
▁padv	-3455
▁razy	-3456
▁sazv	-3457
▁vado	-3458
▁yzvl	-3459
▁zlax	-3460
daxnax	-3461
ixatra	-3462
laxfsk	-3463
naxfsk	-3464
snaxgh	-3465
vazhda	-3466
▁atsta	-3467
▁bystr	-3468
▁dansk	-3469
▁kaspa	-3470
▁raxza	-3471
▁razlo	-3472
▁shtra	-3473
▁skapl	-3474
▁vaxha	-3475
▁zhary	-3476
braxzax	-3477
ixhtava	-3478
ixngaxf	-3479
ixpaxda	-3480
ixraxva	-3481
mvaxlax	-3482
staxfsh	-3483
▁hrusta	-3484
▁instru	-3485
▁ispyta	-3486
▁kaxmpl	-3487
▁saxbra	-3488
ixkaxmux	-3489
ktaxraxm	-3490
rgaxnaxf	-3491
▁kraxsna	-3492
▁uxpravl	-3493
graxpramy	-3494
▁azhaxsta	-3495
▁blaxgada	-3496
▁ekspluxa	-3497
▁saxrkafa	-3498
raxvaxnnaxm	-3499
▁fuxnktsaxa	-3500
▁paxstaxfsh	-3501
▁saxpraxvazhda	-3502
ur	-3503
ink	-3504
nkr	-3505
rda	-3506
haxf	-3507
ktsy	-3508
lama	-3509
palu	-3510
urpr	-3511
▁amb	-3512
farml	-3513
gaxza	-3514
tsaxf	-3515
tyrva	-3516
▁fspy	-3517
▁naka	-3518
▁paru	-3519
▁paxa	-3520
▁saba	-3521
▁sudy	-3522
▁zapo	-3523
▁zvux	-3524
ixzyva	-3525
▁daxpu	-3526
▁kankr	-3527
▁plady	-3528
▁zaxba	-3529
ixrshax	-3530
laxgaxf	-3531
ststsax	-3532
zaxvaxh	-3533
▁abuslo	-3534
▁praslu	-3535
▁sluzhy	-3536
▁vaktsy	-3537
▁vzlama	-3538
ndraxvax	-3539
staxraxv	-3540
▁axkaxna	-3541
▁ynastra	-3542
baxvaxlax	-3543
ntaxspaso	-3544
▁abrastsy	-3545
▁paxgashe	-3546
▁praxdava	-3547
ixrshaxnna	-3548
▁blaxgaxpalu	-3549
nsa	-3550
adno	-3551
tsha	-3552
amagn	-3553
jaxpr	-3554
kaxgh	-3555
zygra	-3556
▁dadu	-3557
▁ynsp	-3558
▁vybra	-3559
haxlada	-3560
ixdusmo	-3561
ixpradu	-3562
ixvaxls	-3563
mvaxlaxm	-3564
taxrnaxh	-3565
▁saxabra	-3566
▁uhutsha	-3567
▁raxzygra	-3568
▁vaxzgara	-3569
▁paxhaxlada	-3570
raxvaxtstsax	-3571
axmy	-3572
▁ina	-3573
▁ish	-3574
enyrg	-3575
ktnax	-3576
▁kart	-3577
▁razu	-3578
buxsax	-3579
axmynva	-3580
▁inagda	-3581
▁paxfta	-3582
ssaxvaxh	-3583
▁uxstaxnavl	-3584
mva	-3585
▁axnv	-3586
▁ynty	-3587
spaxrt	-3588
kruxgax	-3589
naxshax	-3590
▁paxtsu	-3591
▁tramva	-3592
nto	-3593
▁yntyrv	-3594
pe	-3595
te	-3596
axn	-3597
dry	-3598
gdd	-3599
ire	-3600
lga	-3601
lsa	-3602
mbr	-3603
nzy	-3604
rty	-3605
tar	-3606
umy	-3607
ute	-3608
vla	-3609
▁ue	-3610
adda	-3611
aktr	-3612
atax	-3613
dalo	-3614
htsv	-3615
intr	-3616
irra	-3617
irva	-3618
itnu	-3619
jiso	-3620
jito	-3621
kada	-3622
kala	-3623
kart	-3624
lash	-3625
mato	-3626
maxr	-3627
nuxl	-3628
pato	-3629
ravy	-3630
rtna	-3631
ruxm	-3632
rzhy	-3633
ssux	-3634
sypa	-3635
tspa	-3636
uxra	-3637
uxsa	-3638
zbux	-3639
zlax	-3640
▁hly	-3641
▁ine	-3642
▁ino	-3643
▁isa	-3644
▁iza	-3645
▁izh	-3646
fkupe	-3647
ftrax	-3648
haxra	-3649
hramo	-3650
ivano	-3651
ixabj	-3652
ixapo	-3653
ixapr	-3654
ixgma	-3655
izhno	-3656
laxls	-3657
naxzv	-3658
ptaxv	-3659
skaru	-3660
stavo	-3661
uxtax	-3662
uzhda	-3663
zaxna	-3664
▁ablo	-3665
▁akno	-3666
▁asfa	-3667
▁atsn	-3668
▁bamb	-3669
▁dubn	-3670
▁fpra	-3671
▁fshe	-3672
▁paxe	-3673
▁ruba	-3674
▁rzha	-3675
▁sapo	-3676
▁sard	-3677
▁supo	-3678
▁ubra	-3679
▁uvla	-3680
hnuxls	-3681
intana	-3682
ishshu	-3683
ivaxla	-3684
ixdavo	-3685
ixpart	-3686
ixrtua	-3687
ixsavy	-3688
ixspra	-3689
lashno	-3690
llaxru	-3691
maxfsk	-3692
maxnax	-3693
nktuxa	-3694
raxmux	-3695
rtnaxm	-3696
tarsta	-3697
ugaxva	-3698
zhzhux	-3699
▁abyva	-3700
▁axrga	-3701
▁balga	-3702
▁barsh	-3703
▁baxta	-3704
▁dastu	-3705
▁dushe	-3706
▁entux	-3707
▁fanta	-3708
▁izbra	-3709
▁jidva	-3710
▁karde	-3711
▁kaxba	-3712
▁krasa	-3713
▁paxrf	-3714
▁praza	-3715
▁razva	-3716
▁sabla	-3717
▁sasno	-3718
▁sharo	-3719
▁staru	-3720
▁sugro	-3721
▁taska	-3722
▁ushko	-3723
▁valnu	-3724
▁vlady	-3725
duxsnax	-3726
haxtnax	-3727
ixfshux	-3728
ixhadno	-3729
ixmnaty	-3730
ixnzavo	-3731
ixprakt	-3732
ixvasho	-3733
ixzhute	-3734
ltaxvax	-3735
mnaxmux	-3736
naxkart	-3737
nnaxpax	-3738
nzaxvux	-3739
rnuxlax	-3740
skaxpax	-3741
staxfka	-3742
tspasla	-3743
uxrakra	-3744
vaxkaxf	-3745
zhdaxmu	-3746
▁asazna	-3747
▁bankno	-3748
▁gaxzax	-3749
▁grunto	-3750
▁laxshy	-3751
▁marzhy	-3752
▁maxndy	-3753
▁shypta	-3754
▁slazhn	-3755
▁vnusha	-3756
▁vzryva	-3757
ataxkava	-3758
ixkaxvax	-3759
ixkstavo	-3760
ixnyrzhy	-3761
ixsprasv	-3762
jaxfskax	-3763
paxdnaxm	-3764
stuxpaxm	-3765
▁asaxtsy	-3766
▁axdnavo	-3767
▁daxpato	-3768
▁paxsypa	-3769
▁praxsta	-3770
▁saxkrax	-3771
▁uvlazhn	-3772
znaxnnaxh	-3773
▁baxhramo	-3774
▁blaxgaro	-3775
▁graxzhda	-3776
▁paxddalo	-3777
▁raxskaza	-3778
▁saxzdala	-3779
▁shaxkala	-3780
▁splashno	-3781
▁staxmato	-3782
▁vaxzhyva	-3783
▁zaxhaxra	-3784
▁zaxskaru	-3785
▁zhaxravy	-3786
ixvaxlkada	-3787
maxnaxstra	-3788
nktuxatsyo	-3789
rshshaxvax	-3790
▁baxmzhyva	-3791
▁taxtarsta	-3792
taxapaxratu	-3793
tshaxtstsax	-3794
▁saxtsaxala	-3795
▁puxnktuxatsyo	-3796
kp	-3797
lb	-3798
lv	-3799
rf	-3800
se	-3801
ss	-3802
un	-3803
abl	-3804
aka	-3805
aso	-3806
ddo	-3807
ema	-3808
fmy	-3809
glo	-3810
gma	-3811
hlo	-3812
ily	-3813
ine	-3814
inl	-3815
irs	-3816
ivn	-3817
kst	-3818
lgu	-3819
nau	-3820
nny	-3821
nsl	-3822
oda	-3823
rbl	-3824
rhj	-3825
rkm	-3826
rko	-3827
rny	-3828
rvy	-3829
sch	-3830
ssu	-3831
tno	-3832
ula	-3833
uvo	-3834
uxs	-3835
vmu	-3836
vua	-3837
ypt	-3838
zbo	-3839
zgn	-3840
zla	-3841
▁dz	-3842
▁gv	-3843
agra	-3844
anax	-3845
asna	-3846
asno	-3847
aspa	-3848
atro	-3849
axna	-3850
axva	-3851
bako	-3852
bavl	-3853
baxh	-3854
buxs	-3855
dane	-3856
duva	-3857
egza	-3858
gaxl	-3859
ghga	-3860
gnax	-3861
haba	-3862
hand	-3863
idvo	-3864
igla	-3865
ihno	-3866
inka	-3867
inko	-3868
inla	-3869
irku	-3870
irmo	-3871
irpa	-3872
irta	-3873
isfa	-3874
istv	-3875
itry	-3876
ixrg	-3877
ixrl	-3878
ixtk	-3879
ixtu	-3880
ixum	-3881
iznu	-3882
kaxv	-3883
ksty	-3884
kuxl	-3885
laxa	-3886
maba	-3887
muxl	-3888
nara	-3889
nazo	-3890
nhax	-3891
nkta	-3892
nkty	-3893
pstf	-3894
ptsy	-3895
pyta	-3896
rhux	-3897
rlax	-3898
rsko	-3899
sabl	-3900
saxv	-3901
shya	-3902
skry	-3903
spre	-3904
stsa	-3905
taxg	-3906
tknu	-3907
tska	-3908
ugra	-3909
uply	-3910
usho	-3911
uska	-3912
▁abd	-3913
▁abo	-3914
▁aks	-3915
▁apo	-3916
▁asl	-3917
▁axr	-3918
▁flo	-3919
▁fpl	-3920
▁fpr	-3921
▁fto	-3922
▁glo	-3923
▁mae	-3924
▁ste	-3925
▁uma	-3926
▁uro	-3927
▁vda	-3928
▁vru	-3929
▁vzb	-3930
▁ymu	-3931
▁yza	-3932
▁yzj	-3933
▁zby	-3934
▁zvo	-3935
▁zvu	-3936
agrax	-3937
axtsy	-3938
bnavl	-3939
braxs	-3940
dukto	-3941
ekspa	-3942
estra	-3943
fkaxm	-3944
gnaxz	-3945
graxf	-3946
graxh	-3947
gzgux	-3948
imtso	-3949
infax	-3950
irsku	-3951
istse	-3952
ixaks	-3953
ixama	-3954
ixdvu	-3955
ixhva	-3956
ixksu	-3957
ixmfa	-3958
ixpsk	-3959
ixrny	-3960
ixslu	-3961
ixsua	-3962
ixula	-3963
ixvzv	-3964
ixzhn	-3965
izbra	-3966
izyma	-3967
jaxts	-3968
jizda	-3969
kaxvo	-3970
kazny	-3971
knuxd	-3972
kraso	-3973
laxga	-3974
lkaxf	-3975
mashe	-3976
mpart	-3977
naxra	-3978
ndnux	-3979
nglax	-3980
ntstf	-3981
pasta	-3982
paxln	-3983
pstva	-3984
rahlo	-3985
rgaxv	-3986
rsaxv	-3987
rvaxa	-3988
sapro	-3989
saxvr	-3990
shaba	-3991
shtsy	-3992
smaxz	-3993
spaka	-3994
taxgh	-3995
taxru	-3996
tkaxm	-3997
tlaxs	-3998
tsesp	-3999
tvaxm	-4000
unktu	-4001
vdaxn	-4002
zaxka	-4003
zhgla	-4004
znako	-4005
zuxnk	-4006
▁abga	-4007
▁akva	-4008
▁aplo	-4009
▁artr	-4010
▁atny	-4011
▁atvl	-4012
▁axba	-4013
▁axrs	-4014
▁axsh	-4015
▁baka	-4016
▁baza	-4017
▁bura	-4018
▁dano	-4019
▁dary	-4020
▁dzha	-4021
▁dzhe	-4022
▁dzhu	-4023
▁esty	-4024
▁fspl	-4025
▁hlax	-4026
▁inva	-4027
▁isho	-4028
▁izma	-4029
▁izna	-4030
▁kaxe	-4031
▁laty	-4032
▁lzhe	-4033
▁mana	-4034
▁muta	-4035
▁mysa	-4036
▁nabu	-4037
▁natu	-4038
▁pafs	-4039
▁paga	-4040
▁papu	-4041
▁parf	-4042
▁pary	-4043
▁pasu	-4044
▁razo	-4045
▁ryba	-4046
▁saro	-4047
▁sazo	-4048
▁sklo	-4049
▁skru	-4050
▁skvo	-4051
▁tsya	-4052
▁tuxa	-4053
▁uzna	-4054
▁vaka	-4055
▁vyho	-4056
▁yskr	-4057
▁ysku	-4058
▁yzba	-4059
▁zaga	-4060
▁zatr	-4061
▁zbra	-4062
▁zhgu	-4063
▁zubr	-4064
aerapo	-4065
axnnax	-4066
axtaxh	-4067
brazha	-4068
daxnna	-4069
dnakro	-4070
dzaxkl	-4071
fshaxm	-4072
ftaxtr	-4073
gaxtax	-4074
handro	-4075
hshaxh	-4076
ixabdu	-4077
ixbalt	-4078
ixdago	-4079
ixdaxn	-4080
ixhasf	-4081
ixhavy	-4082
ixlaso	-4083
ixmada	-4084
ixmaxh	-4085
ixnaro	-4086
ixngux	-4087
ixntax	-4088
ixnuxt	-4089
ixrlax	-4090
ixrnux	-4091
ixrvua	-4092
ixspax	-4093
ixsypt	-4094
ixtaxf	-4095
ixtrau	-4096
ixtrax	-4097
ixtsye	-4098
ixupla	-4099
ixusto	-4100
ixvyka	-4101
iznutr	-4102
jaxlax	-4103
kaxfsk	-4104
krushy	-4105
kuxlax	-4106
lkaxgh	-4107
lstaxm	-4108
luxzgn	-4109
ndaxna	-4110
raxdux	-4111
raxgax	-4112
rkskax	-4113
rmashy	-4114
rpusnu	-4115
rstvux	-4116
rzhaxd	-4117
rzhaxh	-4118
shaxls	-4119
skarbl	-4120
stavno	-4121
stvaxh	-4122
taxrux	-4123
tpuxsk	-4124
tskaxm	-4125
urazha	-4126
vaxnna	-4127
▁aktse	-4128
▁aktua	-4129
▁autsa	-4130
▁axgza	-4131
▁axnsu	-4132
▁axnty	-4133
▁baxrb	-4134
▁branh	-4135
▁dabro	-4136
▁ekalo	-4137
▁fskry	-4138
▁fstro	-4139
▁grasm	-4140
▁hazhd	-4141
▁islax	-4142
▁kapch	-4143
▁kaxnj	-4144
▁kaxsm	-4145
▁kazna	-4146
▁kusta	-4147
▁malch	-4148
▁matro	-4149
▁muxdr	-4150
▁nadry	-4151
▁nakla	-4152
▁narko	-4153
▁natpo	-4154
▁naxdv	-4155
▁padva	-4156
▁palno	-4157
▁pamno	-4158
▁pasly	-4159
▁paxdb	-4160
▁paxgu	-4161
▁paxna	-4162
▁paxvr	-4163
▁plaha	-4164
▁prakl	-4165
▁prasa	-4166
▁pushy	-4167
▁raddo	-4168
▁rassy	-4169
▁saxpa	-4170
▁shumy	-4171
▁shutl	-4172
▁skarb	-4173
▁skupa	-4174
▁slana	-4175
▁srabo	-4176
▁sumbu	-4177
▁turkm	-4178
▁vaxpr	-4179
▁yzbra	-4180
▁yzrax	-4181
▁yzzax	-4182
▁zaxgl	-4183
▁zhyva	-4184
▁zubno	-4185
asnavny	-4186
baxraxv	-4187
braxlax	-4188
daxbyva	-4189
daxmstf	-4190
gaxlaxm	-4191
inastra	-4192
ixdafsh	-4193
ixdyrla	-4194
ixgusha	-4195
ixhatro	-4196
ixrazbo	-4197
ixrhavo	-4198
ixrnamy	-4199
ixstaxh	-4200
ixstvux	-4201
ixtsaxh	-4202
izlazhy	-4203
laxnnax	-4204
maxtnax	-4205
mnaxtax	-4206
nskaxva	-4207
ntnaxva	-4208
psuxlax	-4209
psuxlux	-4210
raxsnax	-4211
rvaxmux	-4212
saxvaxm	-4213
shaxmux	-4214
skaxrax	-4215
slaxnax	-4216
taxdaxf	-4217
taxstra	-4218
tlaxmux	-4219
tnaxnax	-4220
ugrazha	-4221
vnaxmux	-4222
zaxftsy	-4223
zaxvaxn	-4224
▁akaxza	-4225
▁asambl	-4226
▁atraxk	-4227
▁blatno	-4228
▁ekspre	-4229
▁haxlax	-4230
▁impart	-4231
▁indane	-4232
▁intyrv	-4233
▁izgato	-4234
▁kaxard	-4235
▁kaxshy	-4236
▁kuptsy	-4237
▁nashla	-4238
▁natknu	-4239
▁padbro	-4240
▁pafsta	-4241
▁pashlo	-4242
▁patslu	-4243
▁patspo	-4244
▁paxgra	-4245
▁paxpua	-4246
▁plasma	-4247
▁prarva	-4248
▁praxgr	-4249
▁rastsv	-4250
▁shysse	-4251
▁skanda	-4252
▁smagla	-4253
▁trakta	-4254
▁transl	-4255
▁uspaka	-4256
▁vashla	-4257
▁zaxpla	-4258
▁zaxzvu	-4259
astraxna	-4260
baxpradu	-4261
buxsnaxh	-4262
ftaxraxf	-4263
graxfaxf	-4264
ixabasno	-4265
ixamasto	-4266
ixdvusmy	-4267
ixpaxpra	-4268
ixpraxha	-4269
ixrnysho	-4270
ixrsaxvr	-4271
ixrtsaxa	-4272
ixshskax	-4273
ixspuxbl	-4274
ixstavra	-4275
ixvaxlax	-4276
ixvaxmux	-4277
kspaxrta	-4278
maxntaxf	-4279
rgaxnaxh	-4280
ruxzhyno	-4281
saxvaxls	-4282
shaxnnax	-4283
shnaxvax	-4284
spaxrtax	-4285
staxfkux	-4286
tshaxlax	-4287
tshaxvax	-4288
vaxnnaxm	-4289
zaxftsax	-4290
zdaxnnax	-4291
zraxstux	-4292
▁ablasny	-4293
▁atashla	-4294
▁atrazhe	-4295
▁axerapo	-4296
▁axtmasf	-4297
▁baxktax	-4298
▁baxlala	-4299
▁daxbavl	-4300
▁dzhyntl	-4301
▁ekspana	-4302
▁fuxndax	-4303
▁gaxnara	-4304
▁naxkaza	-4305
▁paxpaln	-4306
▁paxpyta	-4307
▁paxravo	-4308
▁paxtska	-4309
▁praxgma	-4310
▁praxgra	-4311
▁saxkano	-4312
▁strashn	-4313
▁strashy	-4314
▁ustaxna	-4315
▁vaxlavo	-4316
▁vaxsako	-4317
▁vaxznax	-4318
▁vzryvny	-4319
▁zaxkupa	-4320
▁zaxtanu	-4321
▁zazhgla	-4322
▁zhaxsta	-4323
▁zhzhyga	-4324
braxzhyla	-4325
hmaxtnaxm	-4326
ixahandro	-4327
ixdaxmaga	-4328
ixgaxdava	-4329
ixmaxnapo	-4330
ixnaxtsyo	-4331
ixshshaba	-4332
ixvaxabra	-4333
lpraxkuro	-4334
ltaxrskax	-4335
nkuxrsnax	-4336
rhnaxsnax	-4337
zaxvaxlax	-4338
zhaxfshax	-4339
zraxstaxm	-4340
▁axshhaba	-4341
▁axskarbl	-4342
▁baxlashy	-4343
▁baxrahlo	-4344
▁daxlazhy	-4345
▁daxlgavy	-4346
▁daxstavl	-4347
▁gluxbako	-4348
▁kaxmprax	-4349
▁kraxsata	-4350
▁maxlyshy	-4351
▁naxrusha	-4352
▁paxdaxzr	-4353
▁paxlnavo	-4354
▁paxmaglo	-4355
▁paxznako	-4356
▁paxzvano	-4357
▁praxanax	-4358
▁praxvavo	-4359
▁raxzdava	-4360
▁raxzduva	-4361
▁ruxkatvo	-4362
▁suxmashe	-4363
▁suxpasta	-4364
▁uxstavno	-4365
▁zaxkazny	-4366
▁zaxpasny	-4367
ixkaxnstru	-4368
ixntsaxvax	-4369
ixspaxsabl	-4370
izaxbrazha	-4371
llaxraxvax	-4372
maxnnaxvax	-4373
nnaxmarsko	-4374
shaxghzhax	-4375
▁aruxzhyno	-4376
▁axkaxmpax	-4377
▁axrfaxgra	-4378
▁fspaxmaga	-4379
▁gaxratsku	-4380
▁islaxmaba	-4381
▁kaxmprama	-4382
▁kaxrpusnu	-4383
▁kaxsmadro	-4384
▁praxbuzhd	-4385
▁praxdukto	-4386
▁raxspazna	-4387
▁raxspuska	-4388
▁saxkrushy	-4389
▁vaxzrasna	-4390
rtaxrnaxvax	-4391
▁atraxktsyo	-4392
▁hlaxdnakro	-4393
▁kaxtaxstra	-4394
▁raxtsaxana	-4395
▁vaxzaxbnavl	-4396
laxtaxdaxbyva	-4397
raxbaxtaxnnax	-4398
▁daxbraxzhyla	-4399
▁fuxnktsaxana	-4400
stvaxvaxfshaxh	-4401
tnaxnaxtsaxana	-4402
▁vaxznaxgrazhd	-4403
ab	-4404
be	-4405
db	-4406
gv	-4407
gy	-4408
ib	-4409
il	-4410
iv	-4411
lg	-4412
md	-4413
od	-4414
sr	-4415
abm	-4416
abu	-4417
aho	-4418
ara	-4419
arh	-4420
atr	-4421
ats	-4422
bly	-4423
fko	-4424
fsa	-4425
gry	-4426
hch	-4427
hma	-4428
iaa	-4429
igo	-4430
irv	-4431
itk	-4432
kan	-4433
lby	-4434
lny	-4435
mch	-4436
mmu	-4437
mpu	-4438
ndz	-4439
nsu	-4440
nte	-4441
pna	-4442
shj	-4443
ssy	-4444
tmy	-4445
ttv	-4446
uga	-4447
ugu	-4448
umo	-4449
ura	-4450
usa	-4451
usp	-4452
uxk	-4453
vga	-4454
zdr	-4455
zga	-4456
zra	-4457
▁ia	-4458
▁ms	-4459
▁rv	-4460
ahva	-4461
apla	-4462
apsa	-4463
ashy	-4464
asta	-4465
atse	-4466
atsh	-4467
axgh	-4468
axta	-4469
baka	-4470
baxf	-4471
buna	-4472
byla	-4473
drux	-4474
faxs	-4475
fstv	-4476
gava	-4477
gbax	-4478
gubl	-4479
gybe	-4480
haro	-4481
haxd	-4482
haxv	-4483
ibnu	-4484
ibra	-4485
ikma	-4486
ilch	-4487
imbu	-4488
impr	-4489
inga	-4490
ingv	-4491
insu	-4492
irhu	-4493
irsk	-4494
irza	-4495
ismo	-4496
ismy	-4497
isro	-4498
isty	-4499
itsu	-4500
itva	-4501
itvu	-4502
ivma	-4503
ivna	-4504
ixdr	-4505
ixgl	-4506
ixkt	-4507
ixrz	-4508
ixsl	-4509
izro	-4510
izvr	-4511
jaxk	-4512
jaxs	-4513
kazu	-4514
ksux	-4515
lato	-4516
luto	-4517
mbax	-4518
mdvu	-4519
nasl	-4520
nsha	-4521
nshy	-4522
ntsa	-4523
odux	-4524
paga	-4525
paxe	-4526
paxh	-4527
paxt	-4528
pkva	-4529
rgux	-4530
rmch	-4531
rsha	-4532
rtko	-4533
rugo	-4534
ryva	-4535
sabv	-4536
salo	-4537
shny	-4538
spla	-4539
stry	-4540
stse	-4541
stvo	-4542
symu	-4543
tara	-4544
tupa	-4545
tura	-4546
tvax	-4547
ukra	-4548
unax	-4549
usax	-4550
utra	-4551
uxks	-4552
uzux	-4553
vanl	-4554
yska	-4555
zaxr	-4556
zhmu	-4557
zuna	-4558
▁afr	-4559
▁ago	-4560
▁agr	-4561
▁amm	-4562
▁gry	-4563
▁hux	-4564
▁iht	-4565
▁kly	-4566
▁kno	-4567
▁lbu	-4568
▁ugn	-4569
▁upr	-4570
▁vzy	-4571
▁yno	-4572
▁yto	-4573
▁zgo	-4574
▁zlo	-4575
aftsy	-4576
apsta	-4577
argax	-4578
atkry	-4579
axnax	-4580
axtva	-4581
baxga	-4582
baxrd	-4583
dastu	-4584
daxks	-4585
ftsax	-4586
glavl	-4587
iktra	-4588
intso	-4589
inzhy	-4590
ishko	-4591
ishno	-4592
isknu	-4593
istka	-4594
istsy	-4595
ixabl	-4596
ixada	-4597
ixazo	-4598
ixdna	-4599
ixdva	-4600
ixnny	-4601
ixnts	-4602
ixnty	-4603
ixstf	-4604
ixukl	-4605
ixuro	-4606
ixzhe	-4607
ixzua	-4608
jaxna	-4609
juxts	-4610
kaxfk	-4611
kuxmu	-4612
laxda	-4613
laxgh	-4614
laxra	-4615
maxha	-4616
maxla	-4617
mfaxm	-4618
nakra	-4619
ndaxm	-4620
ndaxn	-4621
ndysv	-4622
ndzza	-4623
ngaxm	-4624
ntaxr	-4625
plyva	-4626
praka	-4627
raxga	-4628
raxpa	-4629
raxta	-4630
raxva	-4631
rkaxm	-4632
rktax	-4633
rmava	-4634
rmaxn	-4635
rstvu	-4636
rtavo	-4637
rtvux	-4638
ruxma	-4639
ruxsa	-4640
saxha	-4641
saxna	-4642
saxtk	-4643
saxva	-4644
shuxd	-4645
shylo	-4646
spalo	-4647
staxk	-4648
thaxm	-4649
tkaxh	-4650
tsepr	-4651
tsyft	-4652
ugalo	-4653
ugura	-4654
umaxm	-4655
undax	-4656
ustro	-4657
uxzhy	-4658
vaxma	-4659
vaxru	-4660
vlaxm	-4661
zdaxf	-4662
zdaxl	-4663
zhdux	-4664
zhylu	-4665
znaxk	-4666
zraba	-4667
zuxng	-4668
zvaxl	-4669
▁aktr	-4670
▁ante	-4671
▁arlo	-4672
▁atsl	-4673
▁atva	-4674
▁axbj	-4675
▁axga	-4676
▁azho	-4677
▁byka	-4678
▁dapo	-4679
▁dapu	-4680
▁esto	-4681
▁fkan	-4682
▁fplo	-4683
▁gald	-4684
▁gard	-4685
▁haba	-4686
▁hada	-4687
▁hado	-4688
▁infa	-4689
▁insu	-4690
▁iskl	-4691
▁jivr	-4692
▁karn	-4693
▁kasa	-4694
▁latv	-4695
▁luny	-4696
▁nako	-4697
▁nala	-4698
▁napa	-4699
▁nara	-4700
▁naru	-4701
▁sada	-4702
▁samo	-4703
▁samu	-4704
▁sazy	-4705
▁shra	-4706
▁skro	-4707
▁skry	-4708
▁stvo	-4709
▁taga	-4710
▁tamo	-4711
▁tanu	-4712
▁tuda	-4713
▁tuma	-4714
▁tune	-4715
▁tuso	-4716
▁udru	-4717
▁ukla	-4718
▁upra	-4719
▁ustr	-4720
▁usux	-4721
▁uxpa	-4722
▁uzly	-4723
▁valn	-4724
▁valo	-4725
▁vrux	-4726
▁ygra	-4727
▁ygry	-4728
▁ynfa	-4729
▁yzby	-4730
▁yzma	-4731
▁yzza	-4732
▁zaba	-4733
▁zadu	-4734
▁zapu	-4735
▁zaso	-4736
▁zdra	-4737
▁zubo	-4738
abuslo	-4739
alkago	-4740
antrax	-4741
asambl	-4742
axrmax	-4743
braxny	-4744
braxpa	-4745
daxava	-4746
daxhna	-4747
daxmax	-4748
dnaxkl	-4749
duxshy	-4750
dzaxvy	-4751
etazhy	-4752
gaxubo	-4753
ispyta	-4754
itstsa	-4755
ixaptr	-4756
ixbuna	-4757
ixbyla	-4758
ixdavy	-4759
ixdrax	-4760
ixfarn	-4761
ixgnax	-4762
ixharo	-4763
ixkana	-4764
ixlavy	-4765
ixmado	-4766
ixmara	-4767
ixnuxl	-4768
ixosta	-4769
ixpasr	-4770
ixsnax	-4771
ixstvl	-4772
ixtavo	-4773
ixvyso	-4774
izashe	-4775
izashl	-4776
jaxhax	-4777
kaxnax	-4778
kraxra	-4779
maxpax	-4780
mmaxnu	-4781
nktaxm	-4782
ntstva	-4783
ntsyva	-4784
pkvart	-4785
plaxgh	-4786
prasha	-4787
pstvax	-4788
puxhax	-4789
puxsax	-4790
raxfsk	-4791
raxzhd	-4792
razhda	-4793
rktaxf	-4794
rnskax	-4795
rpaxna	-4796
rpaxra	-4797
rpskax	-4798
rshaxm	-4799
rtvaxm	-4800
ruxktu	-4801
rvaxny	-4802
rvaxrt	-4803
shaxny	-4804
smaxsa	-4805
staxpr	-4806
straxh	-4807
straxv	-4808
tyrbro	-4809
vraxsa	-4810
zdravl	-4811
zduxha	-4812
zhaxsk	-4813
zhyzha	-4814
znakra	-4815
znaxku	-4816
znaxmu	-4817
▁ambux	-4818
▁apstr	-4819
▁atapl	-4820
▁axbly	-4821
▁axznu	-4822
▁brasl	-4823
▁dushy	-4824
▁ekstr	-4825
▁fstra	-4826
▁ftary	-4827
▁gusto	-4828
▁haxla	-4829
▁katko	-4830
▁kaxmb	-4831
▁krugo	-4832
▁kuska	-4833
▁laxka	-4834
▁magla	-4835
▁massa	-4836
▁masty	-4837
▁maxrk	-4838
▁myshy	-4839
▁nabra	-4840
▁naply	-4841
▁naxta	-4842
▁nazdr	-4843
▁nazhy	-4844
▁pahva	-4845
▁partf	-4846
▁parto	-4847
▁pasko	-4848
▁paxrn	-4849
▁pluto	-4850
▁pragr	-4851
▁prapu	-4852
▁rahma	-4853
▁raskl	-4854
▁raxzj	-4855
▁razmy	-4856
▁razry	-4857
▁ruzhj	-4858
▁sadru	-4859
▁sarva	-4860
▁sashe	-4861
▁saxpr	-4862
▁saxtr	-4863
▁shtux	-4864
▁smaro	-4865
▁spasa	-4866
▁staly	-4867
▁tsara	-4868
▁tsyha	-4869
▁tuxrn	-4870
▁unasl	-4871
▁uxkra	-4872
▁valda	-4873
▁vaspo	-4874
▁vaspr	-4875
▁vaxdv	-4876
▁vaxva	-4877
▁vraga	-4878
▁vrago	-4879
▁vryva	-4880
▁vypla	-4881
▁yntsy	-4882
▁zabro	-4883
▁zakru	-4884
▁zhyly	-4885
▁zhzha	-4886
▁zlavo	-4887
ablasno	-4888
apstano	-4889
axtsaxm	-4890
axtstsa	-4891
baxrkax	-4892
daxravl	-4893
druxkux	-4894
duxsaxh	-4895
fshaxgh	-4896
fshaxts	-4897
ixatrax	-4898
ixatvra	-4899
ixdaxra	-4900
ixhkavu	-4901
ixkaxmp	-4902
ixmnatu	-4903
ixndatu	-4904
ixngaxh	-4905
ixntago	-4906
ixpaxra	-4907
ixpaxty	-4908
ixpravo	-4909
ixrasta	-4910
ixrturn	-4911
ixrzhax	-4912
ixskura	-4913
ixslaty	-4914
ixslavu	-4915
ixvastr	-4916
ixzhyla	-4917
ixznava	-4918
izashla	-4919
jaxabra	-4920
jaxmaxh	-4921
kspaxrt	-4922
laxkaxl	-4923
laxtaru	-4924
maxrafo	-4925
naxavga	-4926
naxvaxh	-4927
nfraxst	-4928
nsaxrax	-4929
paxdaxm	-4930
rmuxlax	-4931
rpaxvax	-4932
saxvnax	-4933
tlaxvax	-4934
uxzhyro	-4935
vaxahra	-4936
zaxraxm	-4937
zaxusto	-4938
zhystvo	-4939
▁abarva	-4940
▁ablako	-4941
▁adnamu	-4942
▁akuxmu	-4943
▁alkago	-4944
▁amaxla	-4945
▁anshla	-4946
▁apraba	-4947
▁apstse	-4948
▁apuska	-4949
▁aruzhe	-4950
▁asaxbn	-4951
▁asazhd	-4952
▁atashl	-4953
▁atyska	-4954
▁axnyrg	-4955
▁brashu	-4956
▁daxkux	-4957
▁eshylo	-4958
▁fstava	-4959
▁glafko	-4960
▁gruxza	-4961
▁izbavl	-4962
▁izgalo	-4963
▁kaxnax	-4964
▁kaxrba	-4965
▁luxzhn	-4966
▁marska	-4967
▁marzhe	-4968
▁nashlo	-4969
▁naxatr	-4970
▁naxuka	-4971
▁nazhmu	-4972
▁patshy	-4973
▁paxeta	-4974
▁prasla	-4975
▁prasta	-4976
▁prastu	-4977
▁raspla	-4978
▁raxsha	-4979
▁razgla	-4980
▁razhda	-4981
▁ryshko	-4982
▁shampu	-4983
▁slaxva	-4984
▁sparta	-4985
▁stalby	-4986
▁tuxrpa	-4987
▁uzhasa	-4988
▁varsha	-4989
▁vaxdax	-4990
▁vaxskl	-4991
▁vaxzhd	-4992
▁vrasla	-4993
▁vraxta	-4994
▁vzyska	-4995
▁ynfarm	-4996
▁zaxsla	-4997
▁zhaxgu	-4998
asaxtsya	-4999
baxrnaxh	-5000
blaxkaxm	-5001
braxsaxf	-5002
daxmstva	-5003
daxvaxna	-5004
duxshkax	-5005
ftaxraxm	-5006
ftaxsalo	-5007
gaxdnaxm	-5008
gaxvasto	-5009
hmaxtaxh	-5010
ixdnazna	-5011
ixhaxtva	-5012
ixklaxra	-5013
ixnaxfsk	-5014
ixpaxttv	-5015
ixrzhaxl	-5016
ixrznuxt	-5017
ixshnaxh	-5018
ixtraxgh	-5019
ixtsaxgh	-5020
ixtskazu	-5021
ixzhnaxh	-5022
jaxruxsa	-5023
kaxftsax	-5024
llaxraxv	-5025
maxtstsa	-5026
mskaxvax	-5027
naxvabra	-5028
nzhaxvax	-5029
paxekalo	-5030
raxfskax	-5031
raxvatsy	-5032
raxvaxny	-5033
rtaxrnax	-5034
shnaxmux	-5035
taxmnaxh	-5036
taxrnaxm	-5037
vaxnnaxh	-5038
zhaxstva	-5039
zhdaxmux	-5040
znaxabra	-5041
▁abashlo	-5042
▁abaxkna	-5043
▁ablazhy	-5044
▁atstupa	-5045
▁axruzhe	-5046
▁dvartse	-5047
▁dvuhsta	-5048
▁emmaxnu	-5049
▁fkantse	-5050
▁fsplyva	-5051
▁gaxlado	-5052
▁gaxratk	-5053
▁jizhygo	-5054
▁kaxgybe	-5055
▁maxlado	-5056
▁maxnapo	-5057
▁mushsku	-5058
▁naxtura	-5059
▁paxharo	-5060
▁paxlasy	-5061
▁paxpadu	-5062
▁paxtkax	-5063
▁plaftsa	-5064
▁prashlo	-5065
▁praxfsa	-5066
▁praxzvu	-5067
▁raxstsy	-5068
▁raxtsyo	-5069
▁ruxkapa	-5070
▁saxmaxu	-5071
▁saxshya	-5072
▁sazhzhe	-5073
▁shturva	-5074
▁shynshy	-5075
▁starshy	-5076
▁taxbaka	-5077
▁tsaxrku	-5078
▁ukrasha	-5079
▁vaxsaka	-5080
▁vaxsata	-5081
▁vaxsatu	-5082
▁vdaxhna	-5083
▁yntyrne	-5084
▁zaxbyva	-5085
braxzhyny	-5086
dnaxdastu	-5087
haxtaxrax	-5088
hnuxfshax	-5089
ixbuxrgax	-5090
ixlaxgalo	-5091
ixntsskax	-5092
ixrnaxmux	-5093
ixvaxpaln	-5094
jaxmaxmux	-5095
kaxrstvax	-5096
maxftsaxm	-5097
maxuvazhe	-5098
npraxkuro	-5099
raxbaxtax	-5100
rmaxntaxf	-5101
saxhshaxm	-5102
shskaxmux	-5103
skaxnnaxm	-5104
taxfskaxm	-5105
tstuxpaxh	-5106
zhaxnnaxh	-5107
▁axktsaxa	-5108
▁baxrtavo	-5109
▁buxndysv	-5110
▁daxmaxha	-5111
▁gaxdafsh	-5112
▁gaxlagra	-5113
▁graxzuna	-5114
▁kaxnakra	-5115
▁maxlysha	-5116
▁maxnaxpa	-5117
▁naxpraka	-5118
▁naxsazhd	-5119
▁paxdrugo	-5120
▁paxdzaby	-5121
▁paxstano	-5122
▁praxpaga	-5123
▁praxtara	-5124
▁praxvalo	-5125
▁raxvnadu	-5126
▁raxzmagn	-5127
▁strashny	-5128
▁struxktu	-5129
▁taxrgava	-5130
▁truxdavy	-5131
▁usuxgubl	-5132
▁vaxstavl	-5133
▁vaxzrasl	-5134
▁zaxzhyga	-5135
▁zhzhyzha	-5136
ixraxzraba	-5137
jaxnnaxvax	-5138
lshskaxvax	-5139
ndaxvaxvax	-5140
nsaxvaxvax	-5141
raxzhaxnax	-5142
rhnaxsnaxh	-5143
tstsaxtaxm	-5144
tstuxpaxgh	-5145
vgaxraxdax	-5146
zbraxnnaxh	-5147
zhaxnnaxgh	-5148
zhnaxsaxha	-5149
▁ambuxlato	-5150
▁baxmbaxrd	-5151
▁buxtyrbro	-5152
▁daxbraxpa	-5153
▁daxlgazhy	-5154
▁daxstaxpr	-5155
▁inaxskaza	-5156
▁inaxugura	-5157
▁kaxrpaxra	-5158
▁kaxznakra	-5159
▁paxdzhylu	-5160
▁paxlnatse	-5161
▁paxprasha	-5162
▁paxraxzhd	-5163
▁paxzdravl	-5164
▁raxzbaxga	-5165
▁skaxraxpa	-5166
▁straxhavo	-5167
▁taxntsyva	-5168
▁vaxaruzhy	-5169
▁vaxzbuzhd	-5170
▁vaxzglavl	-5171
▁zaxrazhda	-5172
axrmaxtsyft	-5173
baxvaxnnaxh	-5174
ixdraxspalo	-5175
ixglaxshyna	-5176
ixkaxvaxvax	-5177
skaxmaxrafo	-5178
▁dvaxtstsax	-5179
▁gaxstraxna	-5180
▁praxdaftsa	-5181
▁raxspaxzna	-5182
▁shtuxrmava	-5183
▁spraxvatsy	-5184
▁vaxaduxshy	-5185
▁zaxlaxtaru	-5186
ixakaxtastro	-5187
ixngaxvaxvax	-5188
nfraxstruktu	-5189
rzhaxnnaxvax	-5190
staxnaxvabra	-5191
vaxvaxtstsax	-5192
▁raxznaxabra	-5193
▁taxrzhystvo	-5194
▁vaxzdaxravl	-5195
▁blaxgaxustro	-5196
antraxpaxekalo	-5197
▁yzaxbraxzhyny	-5198
kv	-5199
um	-5200
uz	-5201
apr	-5202
apu	-5203
axr	-5204
dal	-5205
ibu	-5206
ifl	-5207
igl	-5208
inv	-5209
ite	-5210
izl	-5211
kua	-5212
lna	-5213
lua	-5214
mko	-5215
nba	-5216
nss	-5217
pka	-5218
pku	-5219
ppa	-5220
rha	-5221
sly	-5222
tma	-5223
tua	-5224
uka	-5225
uxt	-5226
▁pt	-5227
abla	-5228
afta	-5229
aplo	-5230
apsu	-5231
asmy	-5232
atra	-5233
axla	-5234
azhd	-5235
daxv	-5236
ddax	-5237
dlax	-5238
dvax	-5239
dyrn	-5240
erax	-5241
ftsu	-5242
gaxk	-5243
gdax	-5244
hapu	-5245
hkax	-5246
idnu	-5247
ikax	-5248
ilko	-5249
imch	-5250
inbu	-5251
inty	-5252
irbo	-5253
irgu	-5254
itka	-5255
ixnu	-5256
ixtv	-5257
jizh	-5258
jizv	-5259
kanu	-5260
kard	-5261
kkax	-5262
kmux	-5263
lasa	-5264
ltax	-5265
lumb	-5266
lyha	-5267
lzax	-5268
maho	-5269
mano	-5270
maro	-5271
maxs	-5272
mbux	-5273
mkra	-5274
msto	-5275
navo	-5276
nkts	-5277
nspa	-5278
rbax	-5279
rrax	-5280
rtsa	-5281
rtso	-5282
shch	-5283
shma	-5284
shvu	-5285
snux	-5286
stso	-5287
svax	-5288
tago	-5289
vmux	-5290
ykva	-5291
zaxh	-5292
zhbu	-5293
zhby	-5294
▁adg	-5295
▁ado	-5296
▁agu	-5297
▁akr	-5298
▁arl	-5299
▁ash	-5300
▁ato	-5301
▁bau	-5302
▁fro	-5303
▁gna	-5304
▁iko	-5305
▁inj	-5306
▁izl	-5307
▁izr	-5308
▁spl	-5309
▁sry	-5310
▁ula	-5311
▁utr	-5312
▁uzl	-5313
▁uzu	-5314
▁vzo	-5315
baxla	-5316
baxry	-5317
draxf	-5318
dustr	-5319
duxpr	-5320
ftaxh	-5321
hmaxt	-5322
imbra	-5323
indux	-5324
insta	-5325
instf	-5326
intux	-5327
irtny	-5328
ixasf	-5329
ixksy	-5330
ixmpa	-5331
ixoza	-5332
ixsro	-5333
ixsty	-5334
izhda	-5335
izyko	-5336
kakla	-5337
ksaxf	-5338
ktara	-5339
ktaro	-5340
lazhe	-5341
lkaxv	-5342
lshsk	-5343
luxko	-5344
maxnt	-5345
nazha	-5346
ntkux	-5347
ntsha	-5348
pkaxh	-5349
ppaxm	-5350
raxnu	-5351
rkkax	-5352
rnaly	-5353
rpuxs	-5354
shaxg	-5355
shaxt	-5356
shmux	-5357
shtsa	-5358
skaxa	-5359
skaxf	-5360
spaxd	-5361
taxko	-5362
tkaxv	-5363
tskux	-5364
tsslu	-5365
vatsk	-5366
zhaxm	-5367
zhyry	-5368
znaxz	-5369
▁adbo	-5370
▁arna	-5371
▁ashy	-5372
▁asmo	-5373
▁atax	-5374
▁axpa	-5375
▁axzu	-5376
▁dvuo	-5377
▁ezax	-5378
▁fsko	-5379
▁galo	-5380
▁galu	-5381
▁hala	-5382
▁igru	-5383
▁ispa	-5384
▁ispy	-5385
▁kakt	-5386
▁karu	-5387
▁nasl	-5388
▁nasm	-5389
▁papa	-5390
▁pazo	-5391
▁razr	-5392
▁sako	-5393
▁satu	-5394
▁suro	-5395
▁tata	-5396
▁usly	-5397
▁usva	-5398
▁uzla	-5399
▁vyra	-5400
▁vyvo	-5401
▁ygru	-5402
▁yspy	-5403
▁yzhe	-5404
▁yzlu	-5405
adnavo	-5406
aftano	-5407
aruzhe	-5408
asmysl	-5409
atrasl	-5410
atstsa	-5411
axtnax	-5412
azhyda	-5413
brazho	-5414
dalzha	-5415
ddaxha	-5416
dnaxgh	-5417
drazhe	-5418
fstvux	-5419
ftsaxm	-5420
gaxvux	-5421
hnuxla	-5422
igraxl	-5423
instru	-5424
ixagru	-5425
ixatla	-5426
ixdaml	-5427
ixgara	-5428
ixkamu	-5429
ixksux	-5430
ixlavo	-5431
ixmuxm	-5432
ixnstv	-5433
ixraxh	-5434
ixryva	-5435
ixsako	-5436
ixshax	-5437
ixtkax	-5438
ixvava	-5439
izhysu	-5440
jaxshn	-5441
jaxshs	-5442
jaxstk	-5443
jaxvax	-5444
kaxmux	-5445
kshaxm	-5446
laxvux	-5447
laxzho	-5448
lnatse	-5449
luxata	-5450
maxtux	-5451
mkrasa	-5452
muxshk	-5453
naxdzh	-5454
naxpla	-5455
naxsux	-5456
naxtvo	-5457
naxvux	-5458
nspart	-5459
nstvax	-5460
nsuxsa	-5461
rmaxgh	-5462
rmazhe	-5463
rtuxsh	-5464
rvaxgh	-5465
rvnaxm	-5466
shnava	-5467
skutko	-5468
suxhax	-5469
suxzhd	-5470
taxnax	-5471
taxrsk	-5472
taxstr	-5473
traxgh	-5474
tshaxh	-5475
upravl	-5476
vnaxsl	-5477
zaxbla	-5478
zaxkax	-5479
zaxrux	-5480
zhbaxm	-5481
znaxgh	-5482
▁abzax	-5483
▁abzha	-5484
▁agaro	-5485
▁aprax	-5486
▁avgax	-5487
▁avlax	-5488
▁axkru	-5489
▁babra	-5490
▁bashk	-5491
▁damko	-5492
▁danba	-5493
▁drako	-5494
▁estra	-5495
▁flato	-5496
▁glavy	-5497
▁gusta	-5498
▁izrax	-5499
▁kansa	-5500
▁karte	-5501
▁naxpa	-5502
▁padbo	-5503
▁padlo	-5504
▁paklo	-5505
▁paslu	-5506
▁patra	-5507
▁paxku	-5508
▁pazhe	-5509
▁pralo	-5510
▁prasp	-5511
▁prasv	-5512
▁rastu	-5513
▁raxzl	-5514
▁razlu	-5515
▁shaht	-5516
▁smagl	-5517
▁spasu	-5518
▁suxbj	-5519
▁travm	-5520
▁tsypl	-5521
▁ugada	-5522
▁vasta	-5523
▁vastr	-5524
▁vazdu	-5525
▁vazhd	-5526
▁zasho	-5527
▁zatro	-5528
▁zgara	-5529
▁zhyro	-5530
ablazhe	-5531
apsuzhd	-5532
bnaxvax	-5533
braxzux	-5534
daxsnax	-5535
gaxvaru	-5536
hkaxvax	-5537
htaxvax	-5538
intygra	-5539
ixduxpr	-5540
ixfarma	-5541
ixhaxla	-5542
ixlaxla	-5543
ixlgaro	-5544
ixnasny	-5545
ixngava	-5546
ixnskux	-5547
ixraxga	-5548
ixrhala	-5549
ixrkala	-5550
ixslatu	-5551
ixstava	-5552
ixstyku	-5553
ixudavo	-5554
ixzabra	-5555
jaxmaxm	-5556
jizhzha	-5557
kaxgdax	-5558
kaxkvax	-5559
kaxvaxh	-5560
laxnnux	-5561
laxstax	-5562
maxslux	-5563
nduxlax	-5564
nsaxvux	-5565
nsfarma	-5566
paxlyha	-5567
raxzavo	-5568
rdaxvax	-5569
shlaxva	-5570
slaxvax	-5571
suxshax	-5572
taxmnux	-5573
taxtsyo	-5574
tsyntra	-5575
uxtsaxa	-5576
vaxzhax	-5577
vdaxnax	-5578
zaxskax	-5579
zaxvaxf	-5580
▁abapsh	-5581
▁abarda	-5582
▁abasno	-5583
▁abmanu	-5584
▁abygra	-5585
▁adapta	-5586
▁adgalo	-5587
▁adykva	-5588
▁afarml	-5589
▁aftago	-5590
▁anaxla	-5591
▁anglax	-5592
▁antalo	-5593
▁asaxrt	-5594
▁axrgax	-5595
▁axspra	-5596
▁axsvax	-5597
▁dansko	-5598
▁dvugla	-5599
▁etazhy	-5600
▁faxnta	-5601
▁fhazhd	-5602
▁franty	-5603
▁fstupa	-5604
▁glazny	-5605
▁infarm	-5606
▁ispaxd	-5607
▁kashma	-5608
▁kuxlua	-5609
▁kvarta	-5610
▁marsku	-5611
▁patska	-5612
▁paxlux	-5613
▁paxpux	-5614
▁prazhy	-5615
▁ramsto	-5616
▁saxzhy	-5617
▁tantsu	-5618
▁trudna	-5619
▁tsyrkv	-5620
▁uzurpa	-5621
▁vaxsax	-5622
▁vzhyvl	-5623
▁zhysto	-5624
▁zlaxba	-5625
baxvaxny	-5626
braxzaxm	-5627
daxnnaxh	-5628
ftaxdaro	-5629
induxstr	-5630
ixdaxnax	-5631
ixglasha	-5632
ixkartsm	-5633
ixkaxnku	-5634
ixmaxvax	-5635
ixmuxmux	-5636
ixrsalda	-5637
ixshazhd	-5638
maxslaxf	-5639
naxhazhd	-5640
nkaxvaxh	-5641
nzhzhyry	-5642
paxtaxgh	-5643
paxtnaxm	-5644
praxstax	-5645
ptaxraxf	-5646
puxskaxm	-5647
raxabaro	-5648
rgaxnaxm	-5649
rgaxnaxv	-5650
ruxzhyny	-5651
rvaxrdax	-5652
shaxnnux	-5653
sskaxvax	-5654
stuxpaxf	-5655
traxfava	-5656
▁axtstra	-5657
▁daxmaro	-5658
▁dvartso	-5659
▁evaxkua	-5660
▁industr	-5661
▁kaxlasa	-5662
▁kaxlumb	-5663
▁lantsha	-5664
▁laxmano	-5665
▁maxrafo	-5666
▁mushsko	-5667
▁paxdavl	-5668
▁paxdazr	-5669
▁praxtsv	-5670
▁ruxkava	-5671
▁suxhapu	-5672
▁traxtua	-5673
▁vzryfch	-5674
▁zaxadno	-5675
▁zaxparo	-5676
eraxtaxra	-5677
ixkanstru	-5678
ixkaxvaxh	-5679
ixkraxska	-5680
ixnaxkard	-5681
ixnnaxmux	-5682
ixraxvazr	-5683
ixzaxbyva	-5684
ixzhuxrna	-5685
muxtstsax	-5686
nnaxmarsk	-5687
rzhaxnnax	-5688
saxfskaxm	-5689
skaxzaxll	-5690
skaxzaxls	-5691
stmaxdyrn	-5692
tsaxnskux	-5693
zhaxstvux	-5694
▁abrastso	-5695
▁apsuxzhd	-5696
▁ataxmaho	-5697
▁axnaxpla	-5698
▁daxktaro	-5699
▁daxrazhy	-5700
▁gaxlavno	-5701
▁gaxrnaly	-5702
▁naxvaxka	-5703
▁paxmagla	-5704
▁paxsmatr	-5705
▁saxzdadu	-5706
▁staxnavl	-5707
▁tsaxnavo	-5708
▁vaxrazhe	-5709
▁zaxlazhy	-5710
▁zaxvatsk	-5711
gaxablazhe	-5712
haxnnaxvax	-5713
htaxvaxvax	-5714
ixdaxktara	-5715
ixtraxzavo	-5716
kmuxsaxvax	-5717
znaxvaxnax	-5718
▁axkruzhny	-5719
▁laxskutko	-5720
▁praxvatsy	-5721
▁raxzaxbla	-5722
▁saxmaxapr	-5723
▁saxmaxsta	-5724
▁taxrmazhe	-5725
▁tsaxntrax	-5726
▁tsaxrkavo	-5727
▁zaxdalzha	-5728
hmaxtnaxmux	-5729
ixpaxlnatse	-5730
ixtpaxlazhe	-5731
ixvaxaruzhe	-5732
naxdzhmaxnt	-5733
raxbaxtkaxf	-5734
tsaxgaxvaru	-5735
zhaxnnaxvax	-5736
▁izaxbrazho	-5737
▁mnaxgaxeta	-5738
▁praxdaftsu	-5739
▁praxdaftsy	-5740
▁raxzdrazhe	-5741
▁raxzmnazha	-5742
▁traxnspart	-5743
▁zaxpaxlyha	-5744
staxnaxhazhd	-5745
▁anaxtaxtsyo	-5746
▁ashtraxfava	-5747
▁axkspluxata	-5748
▁axsvaxbazhd	-5749
▁kaxntsyntra	-5750
▁straxshnava	-5751
▁traxnsfarma	-5752
▁vaxsaxkakla	-5753
nspaxrtnaxvax	-5754
▁vaxaruxzhyny	-5755
ktraxkaxtastro	-5756
▁ynfaxrmaxtsyo	-5757
af	-5758
hm	-5759
if	-5760
ze	-5761
arg	-5762
aro	-5763
epo	-5764
hnu	-5765
nga	-5766
nza	-5767
psa	-5768
shv	-5769
tly	-5770
ugo	-5771
unt	-5772
uro	-5773
zah	-5774
▁km	-5775
afto	-5776
apto	-5777
arga	-5778
argu	-5779
atla	-5780
balo	-5781
ifty	-5782
ihva	-5783
iklo	-5784
iktr	-5785
irka	-5786
irla	-5787
irsa	-5788
itko	-5789
ixdj	-5790
ixoa	-5791
izby	-5792
jaxv	-5793
lafa	-5794
lubo	-5795
matr	-5796
mkax	-5797
palo	-5798
part	-5799
pasa	-5800
rako	-5801
rakt	-5802
rhma	-5803
rshe	-5804
rtst	-5805
saxp	-5806
tavo	-5807
tyra	-5808
upax	-5809
upla	-5810
ustv	-5811
uxhm	-5812
uxnk	-5813
vaxg	-5814
zava	-5815
zuxs	-5816
▁aga	-5817
▁asp	-5818
▁erm	-5819
▁shr	-5820
▁usa	-5821
▁uvo	-5822
▁vzl	-5823
akaza	-5824
apara	-5825
atsax	-5826
basto	-5827
hasmo	-5828
ivaxl	-5829
ixkna	-5830
ixzhd	-5831
ixzza	-5832
izhba	-5833
jaxst	-5834
klatu	-5835
klaxf	-5836
kstax	-5837
ktaxv	-5838
lzhax	-5839
mahnu	-5840
maxva	-5841
nkama	-5842
ntnux	-5843
odaxf	-5844
plaxt	-5845
raxnh	-5846
rglax	-5847
rkaxf	-5848
rtaka	-5849
skana	-5850
slabl	-5851
stato	-5852
tatsy	-5853
tstax	-5854
urnax	-5855
vaxpa	-5856
zaxra	-5857
zmaxf	-5858
▁alta	-5859
▁astr	-5860
▁astu	-5861
▁atto	-5862
▁axzm	-5863
▁dalg	-5864
▁data	-5865
▁emax	-5866
▁emba	-5867
▁fslu	-5868
▁galk	-5869
▁glax	-5870
▁gzax	-5871
▁infl	-5872
▁karz	-5873
▁kuro	-5874
▁lunu	-5875
▁mato	-5876
▁nagr	-5877
▁pama	-5878
▁pana	-5879
▁publ	-5880
▁rumy	-5881
▁shpy	-5882
▁smax	-5883
▁tabl	-5884
▁ukax	-5885
▁uska	-5886
▁vyna	-5887
▁ynga	-5888
▁zagl	-5889
▁zamo	-5890
▁zaru	-5891
▁zbro	-5892
aruzho	-5893
axnaxh	-5894
baxmux	-5895
baxtax	-5896
ftaxba	-5897
gaxpla	-5898
haxdax	-5899
haxlax	-5900
intyrv	-5901
ixatlo	-5902
ixkaza	-5903
ixlaxh	-5904
ixnkax	-5905
ixpala	-5906
ixsaxm	-5907
ixtafo	-5908
ixustr	-5909
ixzupr	-5910
izasho	-5911
izbalo	-5912
izhzha	-5913
kaxada	-5914
kaxugo	-5915
kspaso	-5916
laxsax	-5917
mashta	-5918
naxsta	-5919
ndaxgz	-5920
nkaxgh	-5921
nstrax	-5922
pstvux	-5923
rdnaxm	-5924
rpuxsa	-5925
rskaxm	-5926
slazhn	-5927
spaxka	-5928
taxdax	-5929
taxlax	-5930
tnaxva	-5931
upaxtr	-5932
vaxnny	-5933
zahsta	-5934
▁abalo	-5935
▁abnax	-5936
▁akura	-5937
▁apasa	-5938
▁axpsa	-5939
▁bazhe	-5940
▁dalga	-5941
▁dvuhm	-5942
▁farsa	-5943
▁faxna	-5944
▁gubno	-5945
▁intax	-5946
▁istsy	-5947
▁izgax	-5948
▁kampl	-5949
▁kangr	-5950
▁kashy	-5951
▁katly	-5952
▁lamba	-5953
▁mastu	-5954
▁nakry	-5955
▁palzu	-5956
▁passa	-5957
▁paxbu	-5958
▁plado	-5959
▁prado	-5960
▁praka	-5961
▁purpu	-5962
▁rastr	-5963
▁razla	-5964
▁sazha	-5965
▁skura	-5966
▁targa	-5967
▁udavo	-5968
▁ugasa	-5969
▁varva	-5970
▁yspra	-5971
▁zahva	-5972
▁zakla	-5973
▁zakro	-5974
▁zapla	-5975
▁zaxha	-5976
▁zhyze	-5977
auktsyo	-5978
buxsnax	-5979
fshaxhs	-5980
fshaxms	-5981
gaxvaxr	-5982
graxvax	-5983
haxraxf	-5984
intyrva	-5985
ixabrax	-5986
ixkrash	-5987
ixlazhy	-5988
ixoahra	-5989
ixplavu	-5990
ixprada	-5991
ixraxza	-5992
ixshyno	-5993
ixsmatr	-5994
ixsnavo	-5995
ixstara	-5996
ixzuxka	-5997
jaxrnax	-5998
kaxntra	-5999
ktraxdv	-6000
laxgaxm	-6001
maxtyra	-6002
naxfska	-6003
nduxmax	-6004
ntsskax	-6005
ntsyntr	-6006
ptaxrax	-6007
raxslax	-6008
snuxtax	-6009
taxvaxm	-6010
vgaxrax	-6011
▁abaxzr	-6012
▁astaro	-6013
▁atazva	-6014
▁atklax	-6015
▁atrabo	-6016
▁avanga	-6017
▁baxrax	-6018
▁braxnh	-6019
▁dansku	-6020
▁dastro	-6021
▁dvuxhm	-6022
▁entsax	-6023
▁fstupl	-6024
▁kaxzhu	-6025
▁paxdla	-6026
▁paxluo	-6027
▁plaxda	-6028
▁pranza	-6029
▁praxga	-6030
▁srazha	-6031
▁vazgla	-6032
▁vazhna	-6033
▁yspyta	-6034
▁yzaxbr	-6035
▁yzgato	-6036
▁zaxbla	-6037
▁zaxhva	-6038
▁zhadny	-6039
fshaxmux	-6040
gaxfuxnk	-6041
ixksandr	-6042
ixnklatu	-6043
ixnuxtax	-6044
ixokampa	-6045
ixrshyna	-6046
jaxnkama	-6047
ndnaxmux	-6048
nzaxvaxh	-6049
sluxshax	-6050
tknuxtax	-6051
tnaxpasa	-6052
▁atpusko	-6053
▁daxkaza	-6054
▁gaxlubo	-6055
▁glaxuko	-6056
▁intyrva	-6057
▁kaxtakl	-6058
▁maxlada	-6059
▁raxzagr	-6060
▁shaxrax	-6061
▁ukaxmpl	-6062
▁uspaxka	-6063
▁vaxdaro	-6064
▁zaxkaza	-6065
▁zaxmaro	-6066
ixgaxtsyo	-6067
ixvaxpalo	-6068
laxtstsax	-6069
rtstruktu	-6070
ssaxvaxgh	-6071
▁axkruzhe	-6072
▁axslazhn	-6073
▁blaxgavo	-6074
▁daxgaxva	-6075
▁daxskana	-6076
▁daxstava	-6077
▁maxtatsy	-6078
▁muxzhyko	-6079
▁paxgasha	-6080
▁paxslabl	-6081
▁paxtalko	-6082
▁puxstato	-6083
▁raxstava	-6084
▁raxzraba	-6085
▁shaxrako	-6086
▁skaxtavo	-6087
▁tsaxlafa	-6088
▁zvuxkavo	-6089
▁zvuxkavu	-6090
ixdaxatsax	-6091
ixnnaxapsh	-6092
ixraxvasto	-6093
ixstruxktu	-6094
nstraxtsyo	-6095
pnaxmashta	-6096
vaxnnaxmux	-6097
zaxrnaxvax	-6098
▁entsaxkla	-6099
▁gzaxbasto	-6100
▁intaxrakt	-6101
▁izgaxtavl	-6102
▁kaxzahsta	-6103
▁mnaxgatsv	-6104
▁paxnaxsta	-6105
▁praxmahnu	-6106
▁praxpuska	-6107
▁raxbaxtax	-6108
▁spaxrtaka	-6109
ixabraxzava	-6110
ixoapaxratu	-6111
ixvaxaruzho	-6112
raxfskaxvax	-6113
▁abnaxruzhe	-6114
▁zlaxupaxtr	-6115
stvaxvaxnnax	-6116
▁emaxtsaxana	-6117
▁praxkaxntra	-6118
▁skaxntsyntr	-6119
▁mnaxgaxfuxnk	-6120
skaxzhuxtstsax	-6121
▁shaxraxkaxugo	-6122
ixmaxnstraxtsyo	-6123
▁raxbaxtaxspaso	-6124
ll	-6125
aby	-6126
igd	-6127
nbu	-6128
uso	-6129
▁fl	-6130
bava	-6131
igdo	-6132
jivr	-6133
kavr	-6134
lnux	-6135
patl	-6136
raga	-6137
samo	-6138
vara	-6139
zgax	-6140
▁dnu	-6141
▁fko	-6142
▁ipa	-6143
▁iro	-6144
▁smu	-6145
abalo	-6146
fravo	-6147
irsha	-6148
ixaro	-6149
ixatj	-6150
ixska	-6151
ixssa	-6152
izhra	-6153
jikra	-6154
nbuta	-6155
nfrax	-6156
nkalo	-6157
ntkax	-6158
rhaxf	-6159
shaxd	-6160
skalo	-6161
vadno	-6162
▁burl	-6163
▁lapa	-6164
▁mzda	-6165
▁nadu	-6166
▁naga	-6167
▁pasp	-6168
▁raga	-6169
▁trux	-6170
▁usax	-6171
▁uzlo	-6172
▁vygu	-6173
▁vzra	-6174
▁yngu	-6175
▁yspa	-6176
abarda	-6177
abrabo	-6178
afarml	-6179
brazhe	-6180
fafarm	-6181
ixadax	-6182
ixkava	-6183
ixlakt	-6184
maxlax	-6185
ndnaxm	-6186
nnaxsa	-6187
nnaxsl	-6188
ntslax	-6189
rtaxsh	-6190
stkaxf	-6191
taxmax	-6192
uxbava	-6193
uxraxk	-6194
▁axnga	-6195
▁axsta	-6196
▁blago	-6197
▁gaspo	-6198
▁kaxrd	-6199
▁kraxt	-6200
▁masto	-6201
▁naxgr	-6202
▁prabu	-6203
▁rassu	-6204
▁saxbl	-6205
▁skata	-6206
▁ssypa	-6207
▁stupa	-6208
▁ushlo	-6209
atkryva	-6210
ixdzhax	-6211
ixkaxra	-6212
ixspasa	-6213
ntaxnax	-6214
pnaxvax	-6215
saxraxm	-6216
saxvaxh	-6217
▁apuxbl	-6218
▁fuxtux	-6219
▁ipadro	-6220
▁prakla	-6221
▁prashl	-6222
▁raskry	-6223
▁skaxla	-6224
▁ustana	-6225
▁vzhyvu	-6226
baxpravo	-6227
ixraxspr	-6228
ixrskaxm	-6229
ixssazna	-6230
nfraxkra	-6231
rshtsaxf	-6232
rzhaxnax	-6233
skaxvaxh	-6234
stkaxmux	-6235
taxtaxra	-6236
▁abvadno	-6237
▁antarkt	-6238
▁axnkalo	-6239
▁suxraga	-6240
▁uxdaxvl	-6241
▁yspalko	-6242
ixdaxtvra	-6243
ixnuxsavy	-6244
ixstsaxpl	-6245
ixvaxdaro	-6246
ixzaxrgax	-6247
nstvaxvax	-6248
uxraxkrax	-6249
▁kaxmsamo	-6250
▁kraxpatl	-6251
▁raxskalo	-6252
▁raxzvara	-6253
▁zaxbasto	-6254
zhaxntsaxv	-6255
▁kraxtkavr	-6256
▁mnaxgakra	-6257
▁raxvnapra	-6258
▁staxrazha	-6259
▁tsaxfravo	-6260
▁vaxzrasno	-6261
ixkaxfafarm	-6262
▁yzaxbrazhe	-6263
naxtstsaxtax	-6264
taxvaxtstsax	-6265
zaxvaxtstsax	-6266
▁truxbaxpravo	-6267
kn	-6268
fho	-6269
izj	-6270
uts	-6271
▁hu	-6272
▁vj	-6273
atsy	-6274
fnax	-6275
izny	-6276
ixkta	-6277
lstax	-6278
nsaxm	-6279
rlata	-6280
utsko	-6281
▁axva	-6282
▁runa	-6283
daxlax	-6284
gruzha	-6285
ixmaxm	-6286
ixnstf	-6287
kstvax	-6288
mkaxgh	-6289
shskax	-6290
▁axtkl	-6291
▁prary	-6292
▁safho	-6293
▁zhyvy	-6294
ixkaxbr	-6295
ixkrafo	-6296
vlaxfsk	-6297
▁vaxzbu	-6298
▁zaxtru	-6299
ixrturba	-6300
▁yntyrna	-6301
paxdnaxvax	-6302
▁kraxsnava	-6303
▁paxgruzha	-6304
▁saxstavny	-6305
▁shaxrlata	-6306
▁saxabrazhe	-6307
atka	-6308
rhax	-6309
istvo	-6310
ekaxla	-6311
rgaxna	-6312
▁abara	-6313
ixkampa	-6314
ixrnavy	-6315
▁planta	-6316
▁raxzvaro	-6317
saxzhaxnax	-6318
ssao	-6319
znaxssao	-6320
naxshaxskaxm	-6321
rzha	-6322
natvo	-6323
▁yvro	-6324
ixksua	-6325
ktraxe	-6326
▁eshya	-6327
▁barzha	-6328
▁saxharo	-6329
1'	-6330
ar	-6331
me	-6332
tj	-6333
ya	-6334
afa	-6335
ama	-6336
ant	-6337
ard	-6338
avy	-6339
bar	-6340
bas	-6341
bdu	-6342
bnu	-6343
bus	-6344
dua	-6345
duk	-6346
dus	-6347
dvu	-6348
dyr	-6349
dys	-6350
eka	-6351
esk	-6352
faf	-6353
fty	-6354
hap	-6355
has	-6356
izd	-6357
kal	-6358
ksu	-6359
kup	-6360
lum	-6361
lzu	-6362
mpr	-6363
mso	-6364
myn	-6365
nad	-6366
nsp	-6367
psl	-6368
rfa	-6369
rgo	-6370
rml	-6371
rpr	-6372
ryf	-6373
sfa	-6374
sso	-6375
tre	-6376
try	-6377
tvu	-6378
tyg	-6379
ubr	-6380
uha	-6381
une	-6382
urk	-6383
utr	-6384
uxb	-6385
vys	-6386
ydu	-6387
yha	-6388
ymu	-6389
yro	-6390
zba	-6391
zby	-6392
zgl	-6393
zly	-6394
zmy	-6395
zur	-6396
zvy	-6397
zyg	-6398
zyk	-6399
ev	-6400
fe	-6401
ala	-6402
ana	-6403
azh	-6404
bva	-6405
dar	-6406
dat	-6407
dda	-6408
dga	-6409
dnu	-6410
hla	-6411
jib	-6412
jin	-6413
kat	-6414
lad	-6415
laf	-6416
lah	-6417
lak	-6418
lat	-6419
nal	-6420
rau	-6421
tnu	-6422
upl	-6423
uxv	-6424
val	-6425
vus	-6426
yda	-6427
yna	-6428
▁em	-6429
▁ez	-6430
▁id	-6431
▁ig	-6432
▁ik	-6433
▁im	-6434
▁ir	-6435
▁kv	-6436
▁uk	-6437
▁ul	-6438
▁um	-6439
▁up	-6440
▁ut	-6441
▁ym	-6442
▁yv	-6443
abar	-6444
alka	-6445
axgr	-6446
axka	-6447
axku	-6448
axsa	-6449
axsu	-6450
axty	-6451
baro	-6452
baru	-6453
bast	-6454
buta	-6455
buxr	-6456
dadu	-6457
dast	-6458
dysv	-6459
ekax	-6460
eraf	-6461
fafa	-6462
fkup	-6463
frax	-6464
gaxz	-6465
gura	-6466
hala	-6467
hava	-6468
havo	-6469
havy	-6470
haxh	-6471
huts	-6472
imts	-6473
itsh	-6474
ixad	-6475
ixas	-6476
ixbu	-6477
ixby	-6478
ixiz	-6479
ixsu	-6480
ixsy	-6481
ixtp	-6482
ixud	-6483
ixuk	-6484
ixup	-6485
izba	-6486
izla	-6487
kago	-6488
kamp	-6489
kapl	-6490
kash	-6491
kaxb	-6492
kaxu	-6493
kaxz	-6494
kras	-6495
kspr	-6496
kuxm	-6497
kuxr	-6498
laba	-6499
hg	-6500
avo	-6501
axv	-6502
dvy	-6503
eva	-6504
far	-6505
hab	-6506
kaf	-6507
kts	-6508
lag	-6509
lam	-6510
lap	-6511
mat	-6512
pho	-6513
uta	-6514
vak	-6515
var	-6516
vav	-6517
ysk	-6518
zlo	-6519
▁vd	-6520
▁zd	-6521
▁zn	-6522
akax	-6523
axrt	-6524
dago	-6525
dnak	-6526
htax	-6527
jaxg	-6528
lady	-6529
laka	-6530
lana	-6531
lara	-6532
laro	-6533
laso	-6534
lasu	-6535
latv	-6536
laty	-6537
lavu	-6538
lavy	-6539
laxu	-6540
luxz	-6541
lzhn	-6542
mado	-6543
magl	-6544
manu	-6545
naka	-6546
namu	-6547
namy	-6548
nash	-6549
nats	-6550
naty	-6551
navy	-6552
ndro	-6553
nkno	-6554
nkro	-6555
nktu	-6556
nsko	-6557
nstr	-6558
ntst	-6559
ntyr	-6560
nutr	-6561
padu	-6562
pasu	-6563
pasy	-6564
paxd	-6565
paxp	-6566
plav	-6567
prav	-6568
pstr	-6569
puta	-6570
raba	-6571
rago	-6572
rana	-6573
rasl	-6574
rasv	-6575
ratk	-6576
rava	-6577
rska	-6578
rsku	-6579
rtua	-6580
rtuo	-6581
rtur	-6582
rupn	-6583
rurg	-6584
safo	-6585
sand	-6586
saty	-6587
shha	-6588
shyn	-6589
skar	-6590
skva	-6591
smad	-6592
snab	-6593
snav	-6594
spal	-6595
spar	-6596
spaz	-6597
stan	-6598
stka	-6599
aa	-6600
bm	-6601
dj	-6602
km	-6603
mr	-6604
vg	-6605
xe	-6606
xg	-6607
yp	-6608
yz	-6609
ask	-6610
ast	-6611
dap	-6612
daz	-6613
dmo	-6614
est	-6615
imb	-6616
ing	-6617
ixp	-6618
lar	-6619
mak	-6620
nat	-6621
pus	-6622
rab	-6623
ram	-6624
rst	-6625
rtv	-6626
taz	-6627
uho	-6628
ust	-6629
yst	-6630
▁de	-6631
▁kt	-6632
▁ml	-6633
▁ss	-6634
axst	-6635
dust	-6636
duxh	-6637
dzha	-6638
evax	-6639
kaxr	-6640
laha	-6641
lata	-6642
nast	-6643
paka	-6644
pram	-6645
puxs	-6646
rabl	-6647
raxp	-6648
stup	-6649
suzh	-6650
syla	-6651
tala	-6652
tamu	-6653
tanu	-6654
tast	-6655
tazh	-6656
thax	-6657
tpra	-6658
tsaz	-6659
tsku	-6660
tspo	-6661
tsta	-6662
tsyr	-6663
usta	-6664
uxba	-6665
uxgu	-6666
uxha	-6667
uxka	-6668
uxrn	-6669
uxst	-6670
uxty	-6671
uxva	-6672
vago	-6673
vash	-6674
vata	-6675
vaxb	-6676
vaxp	-6677
vaxz	-6678
vazh	-6679
vazr	-6680
vlax	-6681
vyka	-6682
vysh	-6683
vyso	-6684
ygra	-6685
yrla	-6686
ysto	-6687
zaby	-6688
zagr	-6689
zatv	-6690
zdra	-6691
zgla	-6692
zhan	-6693
zhba	-6694
zhyr	-6695
zuxn	-6696
zvra	-6697
zyku	-6698
zysh	-6699
ae	-6700
an	-6701
bz	-6702
dg	-6703
em	-6704
en	-6705
ez	-6706
fc	-6707
hh	-6708
hk	-6709
hz	-6710
kk	-6711
mv	-6712
nr	-6713
nv	-6714
oa	-6715
ok	-6716
ue	-6717
ul	-6718
up	-6719
vj	-6720
xk	-6721
xn	-6722
xv	-6723
avl	-6724
dma	-6725
inb	-6726
lal	-6727
lnu	-6728
lsh	-6729
lur	-6730
pal	-6731
pha	-6732
pua	-6733
tam	-6734
tan	-6735
yba	-6736
yru	-6737
▁fk	-6738
▁mz	-6739
▁ud	-6740
axda	-6741
axsk	-6742
axzh	-6743
davo	-6744
gash	-6745
gaxt	-6746
jaxp	-6747
jaxr	-6748
lavl	-6749
laxd	-6750
laxs	-6751
lshe	-6752
naxn	-6753
paro	-6754
radu	-6755
raxl	-6756
raxn	-6757
raxz	-6758
tary	-6759
taxv	-6760
tpux	-6761
tsyp	-6762
uxsk	-6763
vart	-6764
vats	-6765
vaxa	-6766
zhyk	-6767
zysk	-6768
▁abz	-6769
▁ang	-6770
▁ant	-6771
▁ask	-6772
▁aty	-6773
▁auk	-6774
▁axb	-6775
▁axd	-6776
▁axg	-6777
▁axp	-6778
▁axs	-6779
▁dab	-6780
▁dub	-6781
▁ent	-6782
▁est	-6783
▁fan	-6784
▁fsh	-6785
▁fsk	-6786
▁fud	-6787
▁gar	-6788
▁gub	-6789
▁had	-6790
▁isk	-6791
▁isp	-6792
▁ist	-6793
▁kak	-6794
▁kap	-6795
▁kar	-6796
▁kas	-6797
▁kaz	-6798
▁kup	-6799
am	-6800
bd	-6801
ef	-6802
ek	-6803
ep	-6804
et	-6805
fh	-6806
gb	-6807
hc	-6808
hv	-6809
lh	-6810
lz	-6811
mc	-6812
nz	-6813
re	-6814
tf	-6815
tn	-6816
ub	-6817
uv	-6818
xi	-6819
xt	-6820
yg	-6821
yk	-6822
axa	-6823
axu	-6824
bal	-6825
dad	-6826
kar	-6827
kno	-6828
lta	-6829
man	-6830
nla	-6831
rae	-6832
rak	-6833
tat	-6834
tsl	-6835
vab	-6836
van	-6837
yka	-6838
▁ae	-6839
▁ih	-6840
▁uv	-6841
▁vb	-6842
axny	-6843
farn	-6844
lago	-6845
lugo	-6846
mava	-6847
nada	-6848
naxb	-6849
naxg	-6850
naxs	-6851
paxr	-6852
utsa	-6853
vaxs	-6854
▁axe	-6855
▁kur	-6856
▁lam	-6857
▁lan	-6858
▁lzh	-6859
▁nag	-6860
▁nak	-6861
▁nal	-6862
▁nan	-6863
▁nas	-6864
▁naz	-6865
▁pah	-6866
▁pak	-6867
▁pam	-6868
▁pap	-6869
▁pav	-6870
▁pur	-6871
▁rab	-6872
▁rad	-6873
▁rah	-6874
▁ram	-6875
▁rzh	-6876
▁sad	-6877
▁sag	-6878
▁sas	-6879
▁sud	-6880
▁sug	-6881
▁sum	-6882
▁tur	-6883
▁tyn	-6884
▁ush	-6885
▁usk	-6886
▁usl	-6887
▁ust	-6888
▁uzh	-6889
▁vak	-6890
▁vas	-6891
▁vry	-6892
▁vys	-6893
▁vzh	-6894
▁yna	-6895
▁ysp	-6896
▁zab	-6897
▁zag	-6898
▁zah	-6899
av	-6900
eg	-6901
hp	-6902
hr	-6903
hy	-6904
lm	-6905
mt	-6906
nj	-6907
nn	-6908
om	-6909
sj	-6910
ug	-6911
uo	-6912
ut	-6913
xf	-6914
xp	-6915
xu	-6916
xz	-6917
yl	-6918
axe	-6919
bzh	-6920
dah	-6921
dam	-6922
fpa	-6923
kav	-6924
kaz	-6925
lno	-6926
mzh	-6927
plo	-6928
uny	-6929
uxn	-6930
uxz	-6931
uzh	-6932
vaz	-6933
xts	-6934
▁ep	-6935
▁er	-6936
▁lb	-6937
▁yg	-6938
daxa	-6939
hnax	-6940
ixaz	-6941
ksax	-6942
latu	-6943
naru	-6944
nazh	-6945
nush	-6946
paso	-6947
rado	-6948
spux	-6949
tata	-6950
taxb	-6951
vava	-6952
▁eka	-6953
▁fpa	-6954
▁nap	-6955
▁sap	-6956
▁yng	-6957
▁zga	-6958
▁zhg	-6959
▁zla	-6960
▁zub	-6961
afarm	-6962
axgax	-6963
axgra	-6964
axkax	-6965
axkna	-6966
axnta	-6967
axtkl	-6968
axtma	-6969
axtna	-6970
axzhy	-6971
blada	-6972
brazh	-6973
buslo	-6974
dapta	-6975
daxby	-6976
daxha	-6977
dnamu	-6978
dnavo	-6979
dusma	-6980
duxga	-6981
duxha	-6982
duxna	-6983
duxsh	-6984
duxst	-6985
ekalo	-6986
ftano	-6987
gasla	-6988
gatsv	-6989
gaxba	-6990
gaxpr	-6991
gaxts	-6992
gazhy	-6993
glaso	-6994
guxst	-6995
haxla	-6996
hazhd	-6997
hzhax	-6998
inast	-6999
ag	-7000
az	-7001
fm	-7002
fn	-7003
hd	-7004
hj	-7005
kc	-7006
lc	-7007
ph	-7008
sn	-7009
th	-7010
xd	-7011
ye	-7012
ys	-7013
yt	-7014
zj	-7015
axz	-7016
dan	-7017
hts	-7018
irh	-7019
kam	-7020
ksk	-7021
nam	-7022
ost	-7023
pan	-7024
psu	-7025
pts	-7026
rap	-7027
rku	-7028
shh	-7029
tab	-7030
uma	-7031
uto	-7032
xra	-7033
yva	-7034
yvo	-7035
▁gz	-7036
▁tk	-7037
▁zl	-7038
dash	-7039
daxt	-7040
ktse	-7041
laxb	-7042
rask	-7043
rtny	-7044
ruda	-7045
shsh	-7046
skut	-7047
skvy	-7048
tamo	-7049
tash	-7050
urna	-7051
uxts	-7052
uxzy	-7053
vast	-7054
yshe	-7055
zapa	-7056
▁dzh	-7057
▁nar	-7058
▁sam	-7059
▁sav	-7060
axdax	-7061
axkux	-7062
daxst	-7063
intyr	-7064
ixaha	-7065
ixast	-7066
ixatv	-7067
ixbal	-7068
ixdam	-7069
ixdus	-7070
ixest	-7071
ixhad	-7072
ixhas	-7073
ixhat	-7074
ixkab	-7075
ixkam	-7076
ixkan	-7077
ixkar	-7078
ixnas	-7079
ixpar	-7080
ixpas	-7081
ixrvu	-7082
ixrzh	-7083
ixsma	-7084
ixtux	-7085
ixust	-7086
ixvaz	-7087
ixzab	-7088
ixzhu	-7089
ixzus	-7090
izash	-7091
kanda	-7092
katvo	-7093
kaxra	-7094
kaxts	-7095
krasa	-7096
krash	-7097
kruzh	-7098
kstra	-7099
ao	-7100
gg	-7101
os	-7102
oz	-7103
vv	-7104
xa	-7105
xb	-7106
xl	-7107
xr	-7108
yd	-7109
yf	-7110
zn	-7111
aga	-7112
axk	-7113
axp	-7114
axs	-7115
dla	-7116
esh	-7117
fra	-7118
fst	-7119
kak	-7120
ktp	-7121
lab	-7122
laz	-7123
lzh	-7124
mra	-7125
mst	-7126
mts	-7127
nar	-7128
nav	-7129
nfa	-7130
oka	-7131
ral	-7132
taf	-7133
tak	-7134
tap	-7135
usk	-7136
uxr	-7137
vag	-7138
zag	-7139
▁ag	-7140
▁pc	-7141
▁ub	-7142
▁ug	-7143
gaxs	-7144
laxg	-7145
laxr	-7146
mask	-7147
mazh	-7148
natu	-7149
naxd	-7150
naxl	-7151
naxp	-7152
naxr	-7153
naxt	-7154
nysm	-7155
tana	-7156
tats	-7157
tkry	-7158
tran	-7159
tsko	-7160
usha	-7161
uxla	-7162
uxsh	-7163
ysha	-7164
yshl	-7165
▁eny	-7166
▁fka	-7167
▁fst	-7168
▁saf	-7169
▁una	-7170
▁vad	-7171
dnaxk	-7172
kampa	-7173
ktuxa	-7174
kuxra	-7175
kuxsa	-7176
lagra	-7177
lasha	-7178
lashy	-7179
lasno	-7180
lavno	-7181
laxka	-7182
laxla	-7183
laxsh	-7184
laxsk	-7185
laxst	-7186
laxts	-7187
laxzh	-7188
lazhn	-7189
lkavo	-7190
lprax	-7191
ltaxr	-7192
luxba	-7193
luzhe	-7194
lysha	-7195
lyshy	-7196
magla	-7197
makra	-7198
masto	-7199
bg	-7200
dd	-7201
er	-7202
hs	-7203
mz	-7204
tt	-7205
axg	-7206
daf	-7207
dav	-7208
fts	-7209
ixb	-7210
kab	-7211
kag	-7212
las	-7213
nas	-7214
pas	-7215
paz	-7216
rad	-7217
rah	-7218
ran	-7219
ras	-7220
rat	-7221
rza	-7222
shs	-7223
tsn	-7224
tsp	-7225
tss	-7226
vas	-7227
vzv	-7228
▁ah	-7229
▁ts	-7230
▁yt	-7231
dala	-7232
enax	-7233
inax	-7234
ints	-7235
jaxa	-7236
kaxa	-7237
lakt	-7238
lala	-7239
lava	-7240
lazh	-7241
naxu	-7242
onax	-7243
pako	-7244
rats	-7245
rnal	-7246
satu	-7247
taka	-7248
trab	-7249
tssk	-7250
uxna	-7251
vabo	-7252
vrap	-7253
zaxb	-7254
zhyz	-7255
▁ady	-7256
▁azh	-7257
▁dak	-7258
▁inf	-7259
▁kag	-7260
▁nam	-7261
▁paz	-7262
▁rav	-7263
▁sts	-7264
▁zak	-7265
gaxda	-7266
ixdaf	-7267
ixnst	-7268
maxat	-7269
maxdy	-7270
maxna	-7271
maxnu	-7272
maxsa	-7273
maxsl	-7274
maxty	-7275
mprax	-7276
mstva	-7277
mynva	-7278
nagda	-7279
nagla	-7280
napla	-7281
napra	-7282
naslu	-7283
naxav	-7284
naxga	-7285
naxka	-7286
naxru	-7287
naxsl	-7288
naxst	-7289
naxta	-7290
naxts	-7291
nazna	-7292
ndaxg	-7293
nnaxa	-7294
nnaxp	-7295
nnaxs	-7296
nprax	-7297
nstra	-7298
ntsya	-7299
fp	-7300
xh	-7301
ym	-7302
yo	-7303
hka	-7304
hzh	-7305
kvo	-7306
lug	-7307
nab	-7308
nra	-7309
nsh	-7310
raf	-7311
run	-7312
rzh	-7313
shm	-7314
sva	-7315
tag	-7316
tal	-7317
tvl	-7318
una	-7319
ush	-7320
uva	-7321
uxd	-7322
uxf	-7323
uxg	-7324
uxh	-7325
uxl	-7326
yzh	-7327
zhg	-7328
▁az	-7329
▁eg	-7330
▁en	-7331
▁mg	-7332
▁vv	-7333
axra	-7334
axsh	-7335
mysl	-7336
nava	-7337
nsku	-7338
osta	-7339
pusk	-7340
rash	-7341
rast	-7342
raxg	-7343
rsta	-7344
shts	-7345
takl	-7346
taxd	-7347
tsts	-7348
tsyh	-7349
tsyk	-7350
uxkt	-7351
uxzh	-7352
yshy	-7353
zhyn	-7354
zhzh	-7355
▁ast	-7356
▁dap	-7357
▁esh	-7358
▁kat	-7359
▁kav	-7360
▁nab	-7361
▁psh	-7362
▁rag	-7363
▁tar	-7364
aftax	-7365
axmax	-7366
ixlga	-7367
ixrat	-7368
ixrsh	-7369
lasny	-7370
marsk	-7371
naxsh	-7372
nushy	-7373
nuxls	-7374
nuxzh	-7375
nysho	-7376
nysme	-7377
pasla	-7378
pasny	-7379
paxla	-7380
paxly	-7381
paxtr	-7382
paxty	-7383
plavy	-7384
prada	-7385
pradu	-7386
prama	-7387
prash	-7388
pravo	-7389
pshax	-7390
pskax	-7391
pusnu	-7392
puxsa	-7393
rakra	-7394
rashe	-7395
rasho	-7396
rashu	-7397
rasla	-7398
rasna	-7399
ah	-7400
pc	-7401
yh	-7402
yr	-7403
zz	-7404
dlo	-7405
hsh	-7406
hta	-7407
kma	-7408
knu	-7409
lma	-7410
mab	-7411
mag	-7412
mah	-7413
mas	-7414
nno	-7415
ptr	-7416
rag	-7417
rur	-7418
spu	-7419
stm	-7420
tav	-7421
tur	-7422
uxm	-7423
vma	-7424
yma	-7425
ysa	-7426
zro	-7427
▁fh	-7428
▁uh	-7429
▁yk	-7430
adax	-7431
axma	-7432
axsp	-7433
daxb	-7434
daxg	-7435
daxn	-7436
daxz	-7437
kama	-7438
laxv	-7439
mada	-7440
mana	-7441
mara	-7442
mash	-7443
mast	-7444
maxd	-7445
maxg	-7446
maxk	-7447
maxn	-7448
maxp	-7449
maxt	-7450
maxu	-7451
nadu	-7452
naxz	-7453
rada	-7454
rama	-7455
sata	-7456
task	-7457
tmax	-7458
uxma	-7459
vaxd	-7460
zhra	-7461
▁yst	-7462
daxma	-7463
daxna	-7464
gakra	-7465
laxma	-7466
maxra	-7467
maxst	-7468
naxma	-7469
ratsy	-7470
raxka	-7471
raxku	-7472
raxna	-7473
raxns	-7474
raxny	-7475
raxpr	-7476
raxra	-7477
raxsh	-7478
raxsk	-7479
raxts	-7480
raxzh	-7481
raxzu	-7482
razhy	-7483
rgaxs	-7484
rkavo	-7485
rshru	-7486
rsnax	-7487
rturn	-7488
rusha	-7489
rushe	-7490
rushy	-7491
rusta	-7492
ruzho	-7493
rvaxr	-7494
salda	-7495
sambl	-7496
sandr	-7497
sazda	-7498
sazhy	-7499
ato	-7500
fto	-7501
han	-7502
hpa	-7503
hst	-7504
hvo	-7505
ksh	-7506
lpa	-7507
mad	-7508
pad	-7509
pag	-7510
pak	-7511
par	-7512
pat	-7513
raz	-7514
rlo	-7515
svo	-7516
tto	-7517
unu	-7518
ybe	-7519
ypa	-7520
ysh	-7521
▁ip	-7522
axpa	-7523
baxk	-7524
davy	-7525
fska	-7526
hsta	-7527
infa	-7528
ixmf	-7529
kapa	-7530
kaxk	-7531
ksta	-7532
maxa	-7533
nato	-7534
pala	-7535
past	-7536
psta	-7537
rato	-7538
raxa	-7539
stak	-7540
stav	-7541
talo	-7542
tano	-7543
tapl	-7544
tavy	-7545
tyrb	-7546
vavo	-7547
zash	-7548
zhno	-7549
▁atp	-7550
▁buk	-7551
▁far	-7552
▁rum	-7553
▁tam	-7554
▁yzh	-7555
axsta	-7556
dasta	-7557
gashe	-7558
ixkaf	-7559
ixnyr	-7560
kskax	-7561
naxpa	-7562
naxsa	-7563
nnaxg	-7564
pagra	-7565
paxgh	-7566
rasta	-7567
sazhd	-7568
sazna	-7569
shaxn	-7570
shsha	-7571
shshu	-7572
shsko	-7573
shsku	-7574
shynk	-7575
shyno	-7576
skaxn	-7577
skaxz	-7578
slaxf	-7579
smana	-7580
smysl	-7581
snava	-7582
spako	-7583
spana	-7584
spart	-7585
spasa	-7586
spaxz	-7587
sskax	-7588
stana	-7589
stano	-7590
stara	-7591
staro	-7592
staxp	-7593
stsax	-7594
styku	-7595
talko	-7596
tashl	-7597
taxba	-7598
taxda	-7599
uh	-7600
us	-7601
yv	-7602
ano	-7603
bru	-7604
hna	-7605
lav	-7606
lst	-7607
rav	-7608
rud	-7609
rug	-7610
ruk	-7611
sab	-7612
saz	-7613
yno	-7614
zza	-7615
▁dn	-7616
azhy	-7617
daxs	-7618
gaxa	-7619
ixim	-7620
laru	-7621
lzhy	-7622
mzhy	-7623
ngax	-7624
rano	-7625
razh	-7626
rush	-7627
ruzh	-7628
shru	-7629
skru	-7630
vano	-7631
varu	-7632
zato	-7633
zhyg	-7634
zhyv	-7635
▁arf	-7636
▁jiz	-7637
▁mag	-7638
▁sab	-7639
▁sak	-7640
▁sal	-7641
▁sar	-7642
▁shk	-7643
▁vyg	-7644
▁zad	-7645
▁zal	-7646
▁zam	-7647
▁zap	-7648
▁zar	-7649
▁zas	-7650
▁zat	-7651
baxzh	-7652
daxtv	-7653
ixfsh	-7654
laxru	-7655
mashy	-7656
naxsk	-7657
nzhax	-7658
raxha	-7659
taxka	-7660
taxma	-7661
taxna	-7662
taxsa	-7663
taxsh	-7664
taxst	-7665
taxta	-7666
taxtr	-7667
taxts	-7668
taxva	-7669
tazva	-7670
tknux	-7671
traba	-7672
trada	-7673
trana	-7674
trash	-7675
trasl	-7676
tsara	-7677
tsaxg	-7678
tsaxk	-7679
tsaxl	-7680
tsaxp	-7681
tsaxr	-7682
tsaxt	-7683
tsaxv	-7684
tslax	-7685
tsyha	-7686
tsyna	-7687
tsyny	-7688
turva	-7689
tygra	-7690
tyrna	-7691
uxard	-7692
uxbax	-7693
uxdax	-7694
uxgax	-7695
uxhax	-7696
uxkax	-7697
uxkra	-7698
uxlax	-7699
mf	-7700
vz	-7701
bga	-7702
gak	-7703
gal	-7704
gas	-7705
gav	-7706
hga	-7707
izn	-7708
naz	-7709
rar	-7710
rgu	-7711
rup	-7712
sat	-7713
yko	-7714
yla	-7715
zvl	-7716
axba	-7717
axga	-7718
axru	-7719
daho	-7720
davl	-7721
gada	-7722
gats	-7723
gaxd	-7724
ixin	-7725
nako	-7726
nsta	-7727
nzhy	-7728
rapo	-7729
shno	-7730
taga	-7731
taru	-7732
tstu	-7733
ugax	-7734
ushy	-7735
zhyl	-7736
zhys	-7737
▁atk	-7738
▁atn	-7739
▁bam	-7740
▁dad	-7741
▁dah	-7742
▁dan	-7743
▁das	-7744
▁dav	-7745
▁gad	-7746
▁mat	-7747
▁sup	-7748
▁vag	-7749
▁vap	-7750
▁var	-7751
gasha	-7752
gravo	-7753
ixraz	-7754
kaxga	-7755
laxba	-7756
muxsh	-7757
nuxsa	-7758
plama	-7759
ruxkt	-7760
ruzhy	-7761
skaxp	-7762
stavl	-7763
tazhy	-7764
tsypl	-7765
uxlux	-7766
uxmax	-7767
uxndy	-7768
uxnkt	-7769
uxpra	-7770
uxrma	-7771
uxshk	-7772
uxsta	-7773
uxtux	-7774
uxtyr	-7775
uxzhd	-7776
uxzhn	-7777
vabra	-7778
vasho	-7779
vasla	-7780
vasto	-7781
vastr	-7782
vaxba	-7783
vaxda	-7784
vaxku	-7785
vaxls	-7786
vaxny	-7787
vaxst	-7788
vaxts	-7789
vazha	-7790
vnadu	-7791
vnava	-7792
vusmy	-7793
vuxka	-7794
vuxsh	-7795
vysha	-7796
vyshe	-7797
zaxba	-7798
zaxbr	-7799
hb	-7800
uk	-7801
yb	-7802
alo	-7803
axb	-7804
aza	-7805
dbo	-7806
dza	-7807
lan	-7808
luo	-7809
mar	-7810
nap	-7811
oza	-7812
rbo	-7813
saf	-7814
tlo	-7815
ylo	-7816
yra	-7817
zab	-7818
zak	-7819
zat	-7820
▁sn	-7821
axza	-7822
gavy	-7823
gaxe	-7824
gaxp	-7825
gaxu	-7826
irzh	-7827
ixag	-7828
ixah	-7829
ixak	-7830
ixar	-7831
ixrh	-7832
ktro	-7833
kura	-7834
lado	-7835
lapa	-7836
laza	-7837
mpra	-7838
para	-7839
rabo	-7840
raxb	-7841
rudo	-7842
taxz	-7843
uxza	-7844
valo	-7845
vaza	-7846
zaru	-7847
zbra	-7848
▁axz	-7849
▁jid	-7850
▁mad	-7851
gaxna	-7852
gaxpa	-7853
gaxra	-7854
gaxta	-7855
hshax	-7856
ixats	-7857
ixkag	-7858
kaxza	-7859
kshax	-7860
kuxrs	-7861
naxda	-7862
naxmu	-7863
padro	-7864
raxfa	-7865
raxsa	-7866
saxka	-7867
splux	-7868
stava	-7869
zaxby	-7870
zaxkl	-7871
zaxls	-7872
zaxvy	-7873
zdadu	-7874
zdala	-7875
zdava	-7876
zhary	-7877
zhasa	-7878
zhaxa	-7879
zhaxf	-7880
zhaxg	-7881
zhmax	-7882
zhygo	-7883
zhyla	-7884
zhyno	-7885
zhynt	-7886
zhyny	-7887
zhyro	-7888
zhyst	-7889
zhysu	-7890
zhyvl	-7891
zhyvo	-7892
zhyvu	-7893
zhyzh	-7894
zhzhy	-7895
znaxg	-7896
znuxt	-7897
zurpa	-7898
zysho	-7899
dn	-7900
nb	-7901
on	-7902
tp	-7903
xo	-7904
xs	-7905
▁c	-7906
gzh	-7907
jiv	-7908
nag	-7909
nyr	-7910
nys	-7911
omo	-7912
pst	-7913
sal	-7914
tho	-7915
tny	-7916
tsm	-7917
yny	-7918
zry	-7919
axrm	-7920
fsta	-7921
kaxg	-7922
ktra	-7923
nysh	-7924
pana	-7925
rany	-7926
rukt	-7927
tras	-7928
tsep	-7929
tses	-7930
tsyd	-7931
tsyf	-7932
tsyn	-7933
uxko	-7934
zaxu	-7935
zzax	-7936
▁bal	-7937
▁dam	-7938
▁man	-7939
▁mas	-7940
▁maz	-7941
▁nah	-7942
▁tag	-7943
▁vyb	-7944
▁vyh	-7945
▁vyp	-7946
atsyo	-7947
axzax	-7948
basno	-7949
ixnza	-7950
maxts	-7951
ratsk	-7952
sprax	-7953
trano	-7954
trany	-7955
uxtsy	-7956
uxzax	-7957
vaxka	-7958
zyska	-7959
▁abag	-7960
▁abar	-7961
▁abus	-7962
▁abva	-7963
▁abzh	-7964
▁adga	-7965
▁adva	-7966
▁afta	-7967
▁akru	-7968
▁aktu	-7969
'	-7970
a	-7971
x	-7972
▁	-7973
1	-7974
i	-7975
s	-7976
t	-7977
n	-7978
r	-7979
h	-7980
j	-7981
l	-7982
v	-7983
u	-7984
k	-7985
e	-7986
d	-7987
o	-7988
p	-7989
m	-7990
z	-7991
b	-7992
y	-7993
f	-7994
g	-7995
c	-7996
