<unk>	0
<s>	0
</s>	0
▁п	-0
ст	-1
▁в	-2
▁н	-3
▁с	-4
ен	-5
ра	-6
ро	-7
но	-8
▁о	-9
ко	-10
ре	-11
ли	-12
▁и	-13
▁д	-14
ны	-15
▁по	-16
ри	-17
▁на	-18
ет	-19
го	-20
ни	-21
▁м	-22
ва	-23
▁б	-24
ка	-25
то	-26
ки	-27
ль	-28
ла	-29
во	-30
ть	-31
ся	-32
ер	-33
ло	-34
▁з	-35
▁не	-36
ти	-37
те	-38
да	-39
на	-40
ле	-41
▁у	-42
ени	-43
ци	-44
▁ко	-45
та	-46
че	-47
ми	-48
▁ст	-49
▁со	-50
▁а	-51
ру	-52
ди	-53
▁про	-54
▁э	-55
▁к	-56
▁за	-57
де	-58
ви	-59
▁ра	-60
▁при	-61
▁т	-62
сс	-63
▁во	-64
▁об	-65
ма	-66
мо	-67
ве	-68
не	-69
ски	-70
ют	-71
ля	-72
▁г	-73
чи	-74
▁пре	-75
ча	-76
▁от	-77
сти	-78
бо	-79
▁до	-80
ные	-81
ста	-82
до	-83
ско	-84
хо	-85
▁го	-86
▁мо	-87
жи	-88
▁вы	-89
ду	-90
по	-91
▁ре	-92
сь	-93
ну	-94
ку	-95
ных	-96
▁ка	-97
ем	-98
вы	-99
сто	-100
ры	-101
▁ф	-102
▁де	-103
ты	-104
ги	-105
за	-106
▁из	-107
со	-108
лю	-109
га	-110
па	-111
пе	-112
ения	-113
мен	-114
ный	-115
сть	-116
▁ро	-117
ров	-118
▁бы	-119
ме	-120
сси	-121
лу	-122
ной	-123
се	-124
жа	-125
ств	-126
▁бо	-127
му	-128
ши	-129
ту	-130
▁е	-131
▁но	-132
ня	-133
ение	-134
▁се	-135
зо	-136
▁ми	-137
зи	-138
▁ста	-139
тель	-140
чески	-141
ного	-142
▁бу	-143
▁пе	-144
▁ком	-145
ции	-146
ше	-147
▁я	-148
ная	-149
нов	-150
▁ма	-151
цен	-152
же	-153
▁ч	-154
би	-155
▁под	-156
▁ин	-157
щи	-158
ется	-159
мы	-160
▁пред	-161
вать	-162
ке	-163
▁те	-164
▁кон	-165
ние	-166
пи	-167
зы	-168
▁ме	-169
ан	-170
▁росси	-171
ят	-172
тов	-173
ца	-174
▁раз	-175
▁сво	-176
▁лю	-177
ство	-178
ды	-179
▁стра	-180
са	-181
ще	-182
ря	-183
▁че	-184
ства	-185
▁па	-186
ния	-187
ются	-188
су	-189
ща	-190
▁то	-191
ном	-192
си	-193
ным	-194
▁бе	-195
▁дол	-196
▁си	-197
ской	-198
ствен	-199
лет	-200
▁ш	-201
бе	-202
▁пере	-203
лен	-204
фо	-205
▁все	-206
▁пра	-207
▁это	-208
▁ве	-209
▁для	-210
фи	-211
жет	-212
▁су	-213
об	-214
вля	-215
▁ру	-216
▁жи	-217
ёт	-218
▁ви	-219
ден	-220
кра	-221
це	-222
кти	-223
▁воз	-224
ное	-225
▁х	-226
лись	-227
вер	-228
ную	-229
про	-230
▁цен	-231
ков	-232
рова	-233
▁рабо	-234
▁хо	-235
спо	-236
ень	-237
▁да	-238
лся	-239
▁оп	-240
дца	-241
▁сто	-242
дет	-243
▁фи	-244
лей	-245
он	-246
▁неи	-247
▁ни	-248
ность	-249
▁та	-250
сту	-251
нии	-252
▁са	-253
ска	-254
ности	-255
▁бан	-256
рма	-257
▁боль	-258
род	-259
кто	-260
▁три	-261
ба	-262
гу	-263
вой	-264
вые	-265
▁ди	-266
ск	-267
▁га	-268
ющи	-269
▁вре	-270
тра	-271
▁пи	-272
бы	-273
▁нача	-274
ция	-275
▁ли	-276
ха	-277
тся	-278
ять	-279
йски	-280
коно	-281
рии	-282
кт	-283
дно	-284
лы	-285
ём	-286
ходи	-287
▁будет	-288
ву	-289
▁пер	-290
▁что	-291
вет	-292
циа	-293
ён	-294
дь	-295
▁пос	-296
▁ос	-297
▁россии	-298
ье	-299
нима	-300
пу	-301
стоя	-302
цию	-303
кономи	-304
бли	-305
▁соз	-306
▁вс	-307
ран	-308
дут	-309
▁два	-310
тели	-311
ур	-312
лан	-313
▁ча	-314
каза	-315
ком	-316
ене	-317
ться	-318
▁рас	-319
жно	-320
рт	-321
▁би	-322
▁му	-323
лась	-324
сты	-325
хи	-326
▁ле	-327
гра	-328
▁вос	-329
ей	-330
сят	-331
▁пло	-332
сы	-333
емь	-334
дар	-335
▁вла	-336
▁ю	-337
ках	-338
▁компа	-339
гда	-340
пра	-341
дцать	-342
▁вопро	-343
ыся	-344
▁сре	-345
▁тыся	-346
дни	-347
жен	-348
спе	-349
ского	-350
стави	-351
стро	-352
▁был	-353
чные	-354
кры	-355
мер	-356
▁неэ	-357
рти	-358
▁спе	-359
дер	-360
▁были	-361
▁объ	-362
▁полу	-363
▁как	-364
ления	-365
стви	-366
▁экономи	-367
ску	-368
жда	-369
ческие	-370
▁гра	-371
▁необ	-372
▁ак	-373
фе	-374
▁ав	-375
год	-376
вра	-377
▁прези	-378
▁высо	-379
▁чи	-380
она	-381
▁врем	-382
дели	-383
цы	-384
▁может	-385
▁ки	-386
▁созда	-387
лось	-388
▁смо	-389
вает	-390
нер	-391
дио	-392
зя	-393
ских	-394
став	-395
форма	-396
яви	-397
лове	-398
▁ор	-399
▁пу	-400
▁президен	-401
ез	-402
▁работа	-403
▁реш	-404
ление	-405
▁поли	-406
▁челове	-407
ети	-408
рами	-409
вого	-410
пре	-411
том	-412
ход	-413
▁жиз	-414
ении	-415
им	-416
ступ	-417
сов	-418
вых	-419
▁явля	-420
ёр	-421
▁дру	-422
▁боле	-423
▁тер	-424
ному	-425
ники	-426
при	-427
▁вер	-428
яти	-429
лли	-430
▁ры	-431
оне	-432
вод	-433
жд	-434
рату	-435
еты	-436
▁площа	-437
лё	-438
кан	-439
кой	-440
ству	-441
▁комп	-442
вно	-443
▁авто	-444
▁сле	-445
▁специа	-446
вро	-447
▁будут	-448
зу	-449
ская	-450
▁обо	-451
▁расс	-452
▁ба	-453
▁ла	-454
мери	-455
ены	-456
лько	-457
▁уча	-458
мени	-459
▁горо	-460
▁много	-461
цион	-462
▁моск	-463
ными	-464
ёл	-465
▁ар	-466
▁информа	-467
▁ва	-468
нут	-469
вест	-470
ению	-471
гут	-472
ена	-473
нь	-474
▁время	-475
годня	-476
▁сегодня	-477
ника	-478
вый	-479
▁моло	-480
▁прои	-481
жды	-482
▁амери	-483
цер	-484
▁ис	-485
▁лу	-486
▁пол	-487
щения	-488
▁после	-489
дин	-490
вори	-491
▁кра	-492
▁площадь	-493
бу	-494
▁долж	-495
стра	-496
вания	-497
▁зем	-498
▁ку	-499
▁кре	-500
▁язы	-501
льный	-502
ено	-503
мента	-504
▁страны	-505
▁есть	-506
вед	-507
вор	-508
дей	-509
кий	-510
сло	-511
вя	-512
тро	-513
▁ан	-514
ат	-515
▁прави	-516
▁спо	-517
тории	-518
▁является	-519
гро	-520
ций	-521
▁обра	-522
чь	-523
▁же	-524
▁уч	-525
ский	-526
ник	-527
▁сы	-528
ений	-529
▁милли	-530
тые	-531
▁ше	-532
▁извест	-533
▁неу	-534
▁энер	-535
вали	-536
▁обла	-537
▁зна	-538
ета	-539
мон	-540
ские	-541
▁полити	-542
дов	-543
ших	-544
▁оч	-545
ставля	-546
гии	-547
▁чем	-548
гих	-549
▁нео	-550
▁откры	-551
ша	-552
▁сер	-553
ек	-554
пер	-555
рь	-556
вели	-557
ям	-558
▁помо	-559
▁гру	-560
вропе	-561
▁пла	-562
вое	-563
тно	-564
стве	-565
ющих	-566
▁нало	-567
▁процен	-568
бра	-569
▁слу	-570
▁эк	-571
▁очень	-572
▁меж	-573
кие	-574
скую	-575
▁специали	-576
ском	-577
ней	-578
▁дей	-579
▁испо	-580
стои	-581
▁виде	-582
ар	-583
ью	-584
▁им	-585
чества	-586
рож	-587
стре	-588
▁более	-589
▁столи	-590
▁бла	-591
▁ду	-592
▁фе	-593
ратура	-594
▁тру	-595
▁обще	-596
▁мно	-597
▁компании	-598
кла	-599
▁ж	-600
льные	-601
▁кото	-602
ему	-603
лом	-604
▁ри	-605
ровать	-606
▁концер	-607
чу	-608
▁предпри	-609
▁руб	-610
вропейски	-611
чить	-612
ческим	-613
▁благо	-614
пла	-615
шо	-616
судар	-617
▁государ	-618
чно	-619
▁обе	-620
бя	-621
▁ну	-622
▁теле	-623
▁этого	-624
лект	-625
▁тю	-626
сков	-627
▁чу	-628
▁сей	-629
▁орга	-630
▁стан	-631
кту	-632
мой	-633
▁фа	-634
крати	-635
▁появи	-636
▁начали	-637
▁решение	-638
▁день	-639
▁российски	-640
▁над	-641
▁гла	-642
▁необходи	-643
мая	-644
пло	-645
рен	-646
держа	-647
пы	-648
ний	-649
▁отно	-650
▁семь	-651
зна	-652
клю	-653
фор	-654
вести	-655
ссии	-656
▁года	-657
▁между	-658
вал	-659
▁долла	-660
▁мы	-661
чная	-662
телей	-663
ходят	-664
▁сооб	-665
▁тре	-666
▁никто	-667
дёт	-668
▁кла	-669
▁сте	-670
▁эми	-671
▁видео	-672
гла	-673
нец	-674
▁сред	-675
езжа	-676
щаются	-677
▁вопрос	-678
▁уда	-679
▁эпи	-680
▁весь	-681
ван	-682
▁од	-683
▁себя	-684
▁прода	-685
еры	-686
▁жизнь	-687
вли	-688
тив	-689
ствия	-690
дающих	-691
ету	-692
▁дву	-693
▁сти	-694
стов	-695
▁проку	-696
▁чинов	-697
▁восемь	-698
зе	-699
ваю	-700
рка	-701
▁тор	-702
▁ги	-703
▁пери	-704
▁должны	-705
час	-706
чение	-707
▁сейчас	-708
▁стро	-709
тере	-710
▁ша	-711
▁эпизо	-712
▁сможет	-713
шения	-714
▁зо	-715
▁вне	-716
▁его	-717
▁власти	-718
▁процентов	-719
▁кар	-720
рео	-721
▁наш	-722
▁тем	-723
нали	-724
▁учё	-725
кон	-726
льных	-727
▁только	-728
дела	-729
▁приу	-730
▁внут	-731
рий	-732
тер	-733
льмы	-734
ром	-735
▁совет	-736
▁план	-737
атров	-738
▁игро	-739
▁меся	-740
▁неин	-741
▁стерео	-742
еть	-743
▁луч	-744
▁перио	-745
шего	-746
▁или	-747
▁подмо	-748
▁области	-749
дое	-750
▁уже	-751
ением	-752
▁так	-753
езжает	-754
▁людей	-755
тре	-756
▁реа	-757
▁трио	-758
▁свобо	-759
▁города	-760
▁ло	-761
кам	-762
▁нас	-763
сте	-764
▁неф	-765
ческо	-766
▁сможете	-767
▁любо	-768
▁лет	-769
рован	-770
води	-771
▁холо	-772
пас	-773
▁могут	-774
▁больше	-775
▁человек	-776
рон	-777
▁москве	-778
теля	-779
десят	-780
ников	-781
ционе	-782
▁оста	-783
▁руко	-784
▁возмо	-785
▁город	-786
ьют	-787
бор	-788
▁отли	-789
▁терри	-790
боле	-791
▁тысяч	-792
шли	-793
вают	-794
▁име	-795
▁кли	-796
▁необходимо	-797
моби	-798
▁автомоби	-799
лек	-800
▁двух	-801
прав	-802
▁ново	-803
ческих	-804
▁встре	-805
раз	-806
▁це	-807
▁музы	-808
гов	-809
▁свои	-810
▁строи	-811
▁прош	-812
▁пять	-813
шие	-814
▁органи	-815
ющий	-816
▁стране	-817
ген	-818
▁ти	-819
ческая	-820
фа	-821
льно	-822
▁составля	-823
тах	-824
нич	-825
▁русс	-826
▁всегда	-827
▁президента	-828
▁быв	-829
▁сни	-830
▁безо	-831
▁этом	-832
▁рублей	-833
▁банк	-834
ческой	-835
казы	-836
▁фо	-837
▁хи	-838
торы	-839
▁бли	-840
мат	-841
▁бес	-842
онов	-843
льное	-844
▁можно	-845
шу	-846
гли	-847
▁гу	-848
▁вра	-849
▁рай	-850
▁эти	-851
вается	-852
пол	-853
▁деся	-854
▁земли	-855
▁большо	-856
▁первый	-857
жида	-858
▁опре	-859
▁кол	-860
тый	-861
▁самы	-862
▁часть	-863
▁представи	-864
▁эта	-865
▁креди	-866
тами	-867
готов	-868
▁было	-869
▁мини	-870
▁неиз	-871
нес	-872
няя	-873
▁гото	-874
▁свое	-875
нно	-876
логи	-877
▁возмож	-878
▁состоя	-879
▁л	-880
гово	-881
ктив	-882
жение	-883
▁воен	-884
▁писа	-885
▁радио	-886
чки	-887
▁рын	-888
▁показа	-889
ких	-890
нять	-891
▁один	-892
▁цены	-893
▁помощ	-894
▁территории	-895
мет	-896
ффе	-897
чил	-898
▁времен	-899
▁работы	-900
▁тысячи	-901
стри	-902
▁поло	-903
▁возвра	-904
▁правитель	-905
▁ква	-906
▁стал	-907
▁восста	-908
▁двадцать	-909
йства	-910
стоит	-911
яв	-912
тий	-913
▁состави	-914
дне	-915
зер	-916
там	-917
ятся	-918
▁следу	-919
▁практи	-920
▁преступ	-921
бер	-922
тных	-923
доров	-924
▁коми	-925
ностью	-926
кции	-927
▁мир	-928
▁реги	-929
▁физи	-930
чным	-931
▁мире	-932
бле	-933
ствова	-934
ческую	-935
▁тридцать	-936
рта	-937
лага	-938
рани	-939
тельно	-940
▁народ	-941
чен	-942
▁хозя	-943
нные	-944
седа	-945
дцати	-946
▁праз	-947
▁произ	-948
▁пы	-949
▁кино	-950
лов	-951
рит	-952
▁ию	-953
▁неско	-954
▁деньги	-955
▁ян	-956
дера	-957
▁крас	-958
▁объём	-959
▁банков	-960
▁кур	-961
мии	-962
рожа	-963
жения	-964
▁пяти	-965
▁долго	-966
▁комму	-967
▁шесть	-968
▁строитель	-969
▁быть	-970
▁чтобы	-971
нах	-972
слу	-973
▁всех	-974
мов	-975
▁дене	-976
▁нико	-977
▁четы	-978
▁норма	-979
▁сокра	-980
лез	-981
▁клу	-982
вится	-983
▁праздни	-984
вёр	-985
рет	-986
▁мен	-987
▁суще	-988
▁собра	-989
▁россий	-990
▁информацию	-991
кое	-992
ссо	-993
▁верх	-994
щё	-995
ору	-996
порт	-997
преде	-998
▁действия	-999
▁европейски	-1000
▁составляет	-1001
дом	-1002
ким	-1003
фици	-1004
▁еже	-1005
▁подготов	-1006
▁этот	-1007
▁янва	-1008
▁внутрен	-1009
▁знамени	-1010
▁сло	-1011
рую	-1012
сур	-1013
лень	-1014
▁дви	-1015
▁кру	-1016
терес	-1017
▁утра	-1018
▁рефор	-1019
▁весьма	-1020
▁превра	-1021
▁президент	-1022
нем	-1023
▁режи	-1024
живает	-1025
мещения	-1026
дол	-1027
▁всю	-1028
▁мину	-1029
▁ожида	-1030
▁стары	-1031
▁увели	-1032
▁аль	-1033
▁наз	-1034
▁люби	-1035
▁эффе	-1036
▁дипло	-1037
▁говори	-1038
▁предприяти	-1039
▁практически	-1040
▁федера	-1041
▁каж	-1042
▁получить	-1043
чён	-1044
стом	-1045
▁еди	-1046
▁ещё	-1047
▁фина	-1048
воритель	-1049
▁создать	-1050
▁американ	-1051
▁газ	-1052
▁необы	-1053
▁темпе	-1054
ёз	-1055
вая	-1056
рез	-1057
▁суд	-1058
▁уров	-1059
▁кварти	-1060
▁пробле	-1061
▁ау	-1062
▁бю	-1063
▁без	-1064
▁свой	-1065
▁соро	-1066
▁месяц	-1067
▁специалисты	-1068
гах	-1069
ьюте	-1070
▁юби	-1071
ровал	-1072
нимать	-1073
жал	-1074
мби	-1075
▁ад	-1076
▁граду	-1077
гази	-1078
пера	-1079
▁проду	-1080
▁магази	-1081
▁примен	-1082
бл	-1083
рё	-1084
сса	-1085
ческий	-1086
еха	-1087
сот	-1088
▁вся	-1089
▁обу	-1090
▁тра	-1091
▁диплома	-1092
лые	-1093
коло	-1094
▁люди	-1095
▁музе	-1096
▁возду	-1097
▁элект	-1098
▁начале	-1099
▁постоя	-1100
чают	-1101
▁опу	-1102
▁сту	-1103
▁губер	-1104
▁долларов	-1105
нули	-1106
▁отношения	-1107
▁зи	-1108
▁заня	-1109
ге	-1110
гия	-1111
▁фу	-1112
того	-1113
чает	-1114
▁благот	-1115
▁благотворитель	-1116
▁шах	-1117
годно	-1118
стить	-1119
чита	-1120
льной	-1121
▁приро	-1122
▁других	-1123
▁предстоит	-1124
ок	-1125
фир	-1126
ляют	-1127
нато	-1128
▁была	-1129
ческому	-1130
▁компьюте	-1131
▁работают	-1132
яб	-1133
шей	-1134
грам	-1135
▁дав	-1136
▁порт	-1137
кру	-1138
циен	-1139
▁вой	-1140
▁люд	-1141
▁сосе	-1142
▁пациен	-1143
▁россия	-1144
▁никогда	-1145
▁содержа	-1146
щают	-1147
▁всё	-1148
▁мар	-1149
ступи	-1150
▁глав	-1151
▁здоров	-1152
▁большой	-1153
дний	-1154
льзо	-1155
оруж	-1156
▁инф	-1157
▁аген	-1158
▁север	-1159
▁российский	-1160
▁экономические	-1161
сер	-1162
чик	-1163
твет	-1164
▁твор	-1165
▁многих	-1166
лены	-1167
щему	-1168
▁нау	-1169
шин	-1170
▁ресур	-1171
нией	-1172
▁кор	-1173
▁разви	-1174
▁заболе	-1175
ял	-1176
▁поч	-1177
▁тех	-1178
▁банка	-1179
▁страш	-1180
▁талан	-1181
казались	-1182
цу	-1183
чке	-1184
юще	-1185
ческого	-1186
тли	-1187
кого	-1188
▁всём	-1189
рно	-1190
▁ря	-1191
екта	-1192
▁трудно	-1193
▁помещения	-1194
▁температура	-1195
▁вз	-1196
▁он	-1197
каде	-1198
▁году	-1199
▁эфир	-1200
▁центра	-1201
пов	-1202
▁кос	-1203
▁они	-1204
бира	-1205
▁люб	-1206
▁свя	-1207
▁основ	-1208
тин	-1209
▁ту	-1210
▁гражда	-1211
▁намер	-1212
▁фер	-1213
народ	-1214
▁маль	-1215
▁наших	-1216
▁приня	-1217
▁москов	-1218
▁реформы	-1219
▁хозяйства	-1220
▁международ	-1221
▁языке	-1222
ственно	-1223
▁шахмат	-1224
чие	-1225
чика	-1226
▁год	-1227
▁дож	-1228
ровой	-1229
вались	-1230
▁англи	-1231
▁людям	-1232
▁импорт	-1233
▁минист	-1234
шь	-1235
▁сю	-1236
тими	-1237
▁шан	-1238
менные	-1239
▁храни	-1240
▁преврати	-1241
вь	-1242
ню	-1243
▁зе	-1244
▁оде	-1245
▁невы	-1246
▁помощь	-1247
▁электро	-1248
ственности	-1249
рье	-1250
ября	-1251
▁дра	-1252
▁эли	-1253
▁холода	-1254
▁работает	-1255
рина	-1256
тери	-1257
▁дал	-1258
▁ско	-1259
▁врач	-1260
▁меня	-1261
▁паро	-1262
▁ради	-1263
▁желез	-1264
▁финан	-1265
раи	-1266
▁нако	-1267
▁урожа	-1268
бом	-1269
рур	-1270
соб	-1271
▁ха	-1272
▁зави	-1273
▁факти	-1274
▁разные	-1275
каз	-1276
рёх	-1277
таж	-1278
рабо	-1279
ссёр	-1280
▁дет	-1281
ктуры	-1282
менти	-1283
▁предлага	-1284
▁несколько	-1285
▁заболевания	-1286
оте	-1287
мини	-1288
▁юри	-1289
▁рассказы	-1290
ший	-1291
▁дне	-1292
▁опы	-1293
▁выбо	-1294
▁полю	-1295
▁класси	-1296
▁музыкан	-1297
гие	-1298
лют	-1299
▁ды	-1300
▁коле	-1301
▁мира	-1302
▁через	-1303
▁готовится	-1304
▁государствен	-1305
сли	-1306
▁вку	-1307
▁демон	-1308
▁какие	-1309
▁согла	-1310
▁оптими	-1311
▁поступ	-1312
▁студен	-1313
фицирован	-1314
▁говорить	-1315
▁проходят	-1316
▁талантли	-1317
лети	-1318
▁плю	-1319
чество	-1320
▁смогут	-1321
яза	-1322
▁архи	-1323
▁зелё	-1324
▁обог	-1325
▁денег	-1326
▁нужда	-1327
▁сосед	-1328
▁которую	-1329
▁планету	-1330
▁програм	-1331
▁стандар	-1332
дж	-1333
ях	-1334
вую	-1335
▁жа	-1336
либо	-1337
муще	-1338
твер	-1339
▁гря	-1340
вской	-1341
кратия	-1342
▁вооруж	-1343
▁неизбе	-1344
ционерами	-1345
▁давление	-1346
▁составил	-1347
▁дочь	-1348
▁мене	-1349
▁израи	-1350
▁музее	-1351
▁приём	-1352
▁разно	-1353
▁назвать	-1354
▁политическая	-1355
▁лёт	-1356
▁июне	-1357
▁реши	-1358
▁рисо	-1359
▁винов	-1360
▁самая	-1361
▁созна	-1362
▁дважды	-1363
▁обещают	-1364
▁возможность	-1365
▁оди	-1366
▁акций	-1367
▁гораз	-1368
▁гости	-1369
▁следо	-1370
▁юриди	-1371
лете	-1372
▁вёл	-1373
▁сно	-1374
▁швед	-1375
▁стали	-1376
шим	-1377
лога	-1378
▁офи	-1379
зации	-1380
торов	-1381
▁сеть	-1382
▁смен	-1383
делать	-1384
▁сюжет	-1385
▁компания	-1386
▁коммуника	-1387
▁знаменитый	-1388
ерб	-1389
туа	-1390
мбии	-1391
щные	-1392
▁вве	-1393
серва	-1394
▁любит	-1395
▁стиль	-1396
▁провер	-1397
▁бывшего	-1398
▁сильные	-1399
▁консерва	-1400
▁правительство	-1401
сла	-1402
тки	-1403
чной	-1404
ректо	-1405
▁дыха	-1406
▁исти	-1407
нимают	-1408
▁конец	-1409
▁этому	-1410
▁вопросу	-1411
▁занятий	-1412
▁качества	-1413
▁прокуратура	-1414
▁ге	-1415
▁фон	-1416
листы	-1417
совые	-1418
руются	-1419
▁дожди	-1420
▁случа	-1421
▁также	-1422
▁америку	-1423
▁постоянно	-1424
▁применять	-1425
валифицирован	-1426
гри	-1427
лено	-1428
▁нет	-1429
ристо	-1430
стная	-1431
▁неот	-1432
▁экра	-1433
▁бомон	-1434
▁неуда	-1435
▁около	-1436
▁киноте	-1437
▁ноября	-1438
ствовало	-1439
▁страдающих	-1440
опа	-1441
пози	-1442
стах	-1443
▁дев	-1444
▁пар	-1445
навли	-1446
ститу	-1447
▁вклю	-1448
▁шанс	-1449
▁гипер	-1450
▁юбилей	-1451
▁перегово	-1452
кеа	-1453
нок	-1454
▁ищ	-1455
стан	-1456
▁зон	-1457
▁осна	-1458
▁обяза	-1459
▁распа	-1460
▁любовь	-1461
▁районе	-1462
вец	-1463
вре	-1464
кала	-1465
вёрдо	-1466
йском	-1467
▁кака	-1468
▁утро	-1469
кратно	-1470
▁домов	-1471
▁клиен	-1472
▁проце	-1473
▁архите	-1474
▁всякий	-1475
▁твёрдо	-1476
▁воздуха	-1477
▁градусов	-1478
▁определи	-1479
▁открылся	-1480
нию	-1481
отеки	-1482
▁пьют	-1483
▁само	-1484
▁тихо	-1485
чённый	-1486
▁библи	-1487
▁гораздо	-1488
▁красная	-1489
▁коммента	-1490
▁сообщения	-1491
▁библиотеки	-1492
▁подготовке	-1493
рот	-1494
киру	-1495
нодо	-1496
этаж	-1497
▁ору	-1498
ствует	-1499
▁билет	-1500
▁любви	-1501
нодорож	-1502
▁десять	-1503
▁премии	-1504
▁миллиар	-1505
▁наконец	-1506
▁привели	-1507
▁продажи	-1508
▁столице	-1509
▁энергия	-1510
▁комменти	-1511
▁удаления	-1512
▁необычным	-1513
▁появилась	-1514
▁внутренняя	-1515
▁преступник	-1516
▁железнодорож	-1517
▁коммуникации	-1518
ани	-1519
фина	-1520
▁исто	-1521
▁укра	-1522
дневно	-1523
ктивно	-1524
▁ежедневно	-1525
▁проделать	-1526
▁творчества	-1527
джет	-1528
▁вет	-1529
▁поз	-1530
▁зимой	-1531
▁лазер	-1532
▁облете	-1533
▁фермер	-1534
▁снимать	-1535
▁появился	-1536
цев	-1537
тепе	-1538
▁зим	-1539
▁одо	-1540
левой	-1541
▁писал	-1542
▁директо	-1543
▁шахматный	-1544
лию	-1545
чный	-1546
▁запи	-1547
▁обсу	-1548
▁конку	-1549
▁перед	-1550
▁аристо	-1551
▁давать	-1552
▁расцен	-1553
▁эмигри	-1554
▁режиссёр	-1555
▁известным	-1556
▁восстанавли	-1557
▁возвращаются	-1558
▁квалифицирован	-1559
усы	-1560
чера	-1561
ятно	-1562
вание	-1563
▁груп	-1564
▁моду	-1565
тонией	-1566
▁витами	-1567
▁приятно	-1568
▁ресурсы	-1569
▁мальчика	-1570
▁пациента	-1571
▁приёмной	-1572
стрируются	-1573
▁неинтерес	-1574
▁информации	-1575
▁нормальное	-1576
▁гипертонией	-1577
▁участвовало	-1578
▁консерватории	-1579
меи	-1580
ётся	-1581
стети	-1582
стках	-1583
шение	-1584
▁мебе	-1585
▁вошли	-1586
▁счита	-1587
лемента	-1588
▁высоты	-1589
▁неодно	-1590
▁дыхание	-1591
▁правила	-1592
▁известно	-1593
▁сознание	-1594
▁неоднократно	-1595
тю	-1596
уре	-1597
пная	-1598
реют	-1599
ячке	-1600
▁слы	-1601
гарет	-1602
▁ищет	-1603
▁сочи	-1604
менены	-1605
▁опера	-1606
▁плани	-1607
▁сырье	-1608
▁заседа	-1609
▁фильмы	-1610
▁руковод	-1611
▁сигарет	-1612
▁театров	-1613
стическим	-1614
▁грустная	-1615
▁обучение	-1616
▁свободно	-1617
▁миллионов	-1618
▁подмосков	-1619
▁проживает	-1620
▁стандартам	-1621
джа	-1622
рах	-1623
тие	-1624
кету	-1625
▁хим	-1626
койно	-1627
▁плюс	-1628
▁каждое	-1629
▁менедж	-1630
▁зелёных	-1631
▁магазин	-1632
▁этикету	-1633
▁рисовать	-1634
▁спокойно	-1635
▁дипломаты	-1636
▁следовать	-1637
▁предпринима	-1638
рам	-1639
слови	-1640
▁чуть	-1641
▁зоопа	-1642
▁инфля	-1643
▁конди	-1644
▁минус	-1645
▁этаже	-1646
▁одежды	-1647
▁комплек	-1648
▁распаду	-1649
▁средний	-1650
▁оснастить	-1651
▁приезжает	-1652
▁содержания	-1653
▁компьютерами	-1654
▁фактическому	-1655
▁строительстве	-1656
▁кондиционерами	-1657
рой	-1658
зные	-1659
мент	-1660
ркая	-1661
ноким	-1662
стари	-1663
типов	-1664
▁жили	-1665
▁внеза	-1666
▁смене	-1667
▁яркая	-1668
▁единые	-1669
▁меняла	-1670
▁января	-1671
▁исстари	-1672
▁квартиры	-1673
▁одиноким	-1674
▁приучают	-1675
▁северном	-1676
▁шведской	-1677
▁нуждается	-1678
▁столичные	-1679
▁праздничная	-1680
▁стереотипов	-1681
дите	-1682
леть	-1683
▁биз	-1684
▁газа	-1685
▁пароль	-1686
▁сюжеты	-1687
▁введите	-1688
▁элитных	-1689
▁неудачно	-1690
▁проверку	-1691
▁железнодорожная	-1692
емы	-1693
беле	-1694
успе	-1695
блико	-1696
новые	-1697
элект	-1698
вающему	-1699
▁модели	-1700
▁нобеле	-1701
▁банкиру	-1702
▁зависят	-1703
▁преуспе	-1704
▁опублико	-1705
▁нобелевской	-1706
▁преуспевающему	-1707
вым	-1708
▁пш	-1709
хозы	-1710
диохи	-1711
еницы	-1712
▁повы	-1713
рургии	-1714
фильмы	-1715
▁закон	-1716
▁пиани	-1717
▁урожаю	-1718
▁яровой	-1719
▁колхозы	-1720
▁периоде	-1721
▁пшеницы	-1722
▁кардиохи	-1723
▁концерте	-1724
▁обогнали	-1725
▁пианистов	-1726
▁фермерские	-1727
▁видеофильмы	-1728
▁кардиохирургии	-1729
ьего	-1730
▁буре	-1731
▁игрок	-1732
делимая	-1733
ничьего	-1734
▁бюджет	-1735
▁замбии	-1736
▁бомонда	-1737
▁новость	-1738
▁отличие	-1739
▁пылевой	-1740
▁облетела	-1741
▁страшной	-1742
▁губернато	-1743
▁неотделимая	-1744
▁эмигрировал	-1745
▁аристократия	-1746
▁чиновничьего	-1747
рует	-1748
▁дрож	-1749
зящные	-1750
тичные	-1751
▁когда	-1752
ронному	-1753
▁зимние	-1754
▁нового	-1755
▁портят	-1756
▁грянули	-1757
▁эпизоды	-1758
▁поступки	-1759
▁неизящные	-1760
▁неэтичные	-1761
▁вооружению	-1762
▁оборонному	-1763
▁специалистом	-1764
коко	-1765
тоны	-1766
тюды	-1767
уреа	-1768
▁наи	-1769
джаки	-1770
▁стои	-1771
блются	-1772
▁талию	-1773
▁этюды	-1774
дически	-1775
▁лауреа	-1776
▁рококо	-1777
▁хитоны	-1778
▁налогах	-1779
▁пиджаки	-1780
▁природе	-1781
▁радиусы	-1782
▁экранах	-1783
▁эфирное	-1784
▁расценок	-1785
▁поднимают	-1786
▁чиновники	-1787
▁колеблются	-1788
▁отказались	-1789
▁кинотеатров	-1790
▁комментарии	-1791
▁классические	-1792
▁неинтересные	-1793
▁эпизодически	-1794
▁восстанавливал	-1795
▁демонстрируются	-1796
ьёз	-1797
▁драмы	-1798
▁ситуа	-1799
▁призна	-1800
▁серьёз	-1801
▁стареют	-1802
▁временем	-1803
▁истинные	-1804
▁ценности	-1805
▁ожидаются	-1806
▁английском	-1807
▁юридическую	-1808
▁оптимистическим	-1809
тих	-1810
юар	-1811
десс	-1812
▁тюф	-1813
нения	-1814
факто	-1815
▁икеа	-1816
▁опас	-1817
▁прии	-1818
▁тено	-1819
▁учил	-1820
влиять	-1821
▁дости	-1822
▁лежал	-1823
▁предо	-1824
▁стюар	-1825
▁терял	-1826
▁учёте	-1827
позитах	-1828
▁админи	-1829
▁лётчик	-1830
▁тюлень	-1831
▁химках	-1832
▁языках	-1833
дающихся	-1834
▁агенств	-1835
▁высокое	-1836
▁игровое	-1837
▁неиндое	-1838
▁приутих	-1839
▁теноров	-1840
▁тюфячке	-1841
▁хранить	-1842
▁эмиссии	-1843
стетичная	-1844
▁здоровье	-1845
▁инфляции	-1846
▁отменены	-1847
▁повлиять	-1848
▁сочинять	-1849
▁сырьевые	-1850
вропейских	-1851
▁депозитах	-1852
▁мебельный	-1853
▁менеджеры	-1854
▁невыгодно	-1855
▁неизбежно	-1856
▁стюардесс	-1857
▁администра	-1858
▁банковских	-1859
▁выдающихся	-1860
▁подмостках	-1861
▁приименные	-1862
▁эффективно	-1863
▁сокращаются	-1864
▁экономистах	-1865
▁неэстетичная	-1866
▁определители	-1867
▁подмосковных	-1868
▁талантливого	-1869
▁предприниматели	-1870
дежи	-1871
ваюсь	-1872
зобли	-1873
▁гекта	-1874
▁класс	-1875
▁клубе	-1876
▁слышу	-1877
пределе	-1878
▁посмеи	-1879
▁обратно	-1880
▁уезжает	-1881
▁билетном	-1882
▁виновных	-1883
▁включает	-1884
▁гектаров	-1885
▁клиентом	-1886
▁молодежи	-1887
▁неизобли	-1888
лементарно	-1889
▁беспределе	-1890
▁европейским	-1891
▁посмеиваюсь	-1892
▁неэлементарно	-1893
▁неизобличённый	-1894
лена	-1895
▁вене	-1896
▁дель	-1897
▁обви	-1898
▁хоро	-1899
ванную	-1900
тепель	-1901
▁какао	-1902
▁певец	-1903
▁утрам	-1904
финарий	-1905
▁полюсе	-1906
▁услови	-1907
плановые	-1908
▁венецию	-1909
▁молоком	-1910
▁зоопарка	-1911
▁концерту	-1912
▁оттепель	-1913
▁показаны	-1914
▁внезапная	-1915
▁превратила	-1916
▁юбилейному	-1917
▁архитектуры	-1918
▁дельфинарий	-1919
▁разноплановые	-1920
▁комментировать	-1921
▁опубликованную	-1922
мот	-1923
▁сра	-1924
мелые	-1925
прави	-1926
циона	-1927
▁подо	-1928
этажки	-1929
▁обнов	-1930
▁право	-1931
▁продол	-1932
▁сносят	-1933
▁безответ	-1934
▁неумелые	-1935
кономичные	-1936
▁обновляют	-1937
▁пятиэтажки	-1938
▁неэкономичные	-1939
касс	-1940
чуть	-1941
имуще	-1942
▁гага	-1943
▁тран	-1944
▁эста	-1945
ьезные	-1946
▁аудио	-1947
ехаться	-1948
кассеты	-1949
менитые	-1950
▁альбом	-1951
▁записи	-1952
▁верхнем	-1953
▁одолеть	-1954
▁гагарина	-1955
▁лазерный	-1956
▁площадью	-1957
▁преимуще	-1958
▁эстакаде	-1959
▁серьезные	-1960
▁следующий	-1961
▁музыкантов	-1962
▁неименитые	-1963
▁проехаться	-1964
▁видеокассеты	-1965
▁автомобилисты	-1966
▁преимущественно	-1967
жден	-1968
барит	-1969
рикам	-1970
▁сбор	-1971
▁опыты	-1972
▁физик	-1973
▁малога	-1974
▁находи	-1975
▁семьям	-1976
баритные	-1977
▁диэлект	-1978
▁лауреатом	-1979
▁предлагать	-1980
▁диэлектрикам	-1981
▁студенческим	-1982
▁малогабаритные	-1983
▁сч	-1984
чере	-1985
стран	-1986
▁вели	-1987
ждения	-1988
▁интер	-1989
▁предло	-1990
▁торгов	-1991
кре	-1992
лого	-1993
▁жур	-1994
▁голо	-1995
▁соб	-1996
▁сол	-1997
▁уго	-1998
печки	-1999
ртить	-2000
ступа	-2001
▁круп	-2002
▁пода	-2003
▁потре	-2004
роватые	-2005
▁девять	-2006
▁дрожжи	-2007
▁выпечки	-2008
▁вкусовые	-2009
▁испортить	-2010
▁сыроватые	-2011
льную	-2012
▁экспо	-2013
жу	-2014
нк	-2015
виа	-2016
сан	-2017
стру	-2018
▁рес	-2019
▁исся	-2020
▁налого	-2021
▁иссякала	-2022
▁витаминов	-2023
жай	-2024
▁ль	-2025
него	-2026
чения	-2027
▁ближай	-2028
▁контро	-2029
тя	-2030
щу	-2031
дек	-2032
зов	-2033
ман	-2034
нуть	-2035
▁влади	-2036
▁четыре	-2037
ками	-2038
▁кри	-2039
▁валют	-2040
▁участ	-2041
жде	-2042
волю	-2043
чных	-2044
▁конф	-2045
▁имеет	-2046
▁место	-2047
▁должен	-2048
▁телефо	-2049
▁человека	-2050
▁их	-2051
гети	-2052
▁две	-2053
▁энергети	-2054
▁анти	-2055
станов	-2056
▁обеспе	-2057
▁большин	-2058
▁успе	-2059
▁оказа	-2060
▁граждан	-2061
▁тур	-2062
▁сорок	-2063
цо	-2064
вле	-2065
вов	-2066
▁гор	-2067
йти	-2068
▁обы	-2069
▁авиа	-2070
▁жизни	-2071
▁против	-2072
сут	-2073
ями	-2074
▁сот	-2075
публи	-2076
ствие	-2077
▁рост	-2078
▁республи	-2079
▁российской	-2080
писа	-2081
ходит	-2082
▁хара	-2083
▁мэ	-2084
ющие	-2085
правля	-2086
▁актив	-2087
лем	-2088
▁фор	-2089
▁това	-2090
▁нефть	-2091
▁представ	-2092
клад	-2093
льном	-2094
▁фран	-2095
▁бизнес	-2096
ственные	-2097
зм	-2098
▁оружи	-2099
▁участи	-2100
▁вто	-2101
▁дня	-2102
ербур	-2103
ваются	-2104
етербур	-2105
надцать	-2106
▁конкур	-2107
▁использо	-2108
▁дв	-2109
стой	-2110
▁защи	-2111
▁двена	-2112
▁постав	-2113
зма	-2114
▁сох	-2115
▁ката	-2116
нет	-2117
чей	-2118
йдёт	-2119
▁иде	-2120
▁дела	-2121
▁сист	-2122
▁позво	-2123
▁украи	-2124
▁настоя	-2125
▁региона	-2126
вид	-2127
нее	-2128
щен	-2129
читы	-2130
▁себе	-2131
стей	-2132
▁коли	-2133
▁лишь	-2134
▁федерации	-2135
нен	-2136
▁осно	-2137
▁судь	-2138
▁индек	-2139
▁распо	-2140
вом	-2141
▁мет	-2142
▁грани	-2143
▁рынке	-2144
тур	-2145
ждён	-2146
▁гим	-2147
▁недо	-2148
нди	-2149
ске	-2150
тен	-2151
круг	-2152
цвет	-2153
▁борь	-2154
ционных	-2155
▁безопас	-2156
▁съ	-2157
▁зда	-2158
▁коти	-2159
тия	-2160
ерен	-2161
▁гене	-2162
▁трёх	-2163
▁утвер	-2164
▁сою	-2165
▁доро	-2166
▁идёт	-2167
▁очере	-2168
▁причи	-2169
▁полови	-2170
▁фир	-2171
ющего	-2172
▁мест	-2173
ваться	-2174
▁завер	-2175
▁своих	-2176
▁среди	-2177
▁сторо	-2178
▁многие	-2179
▁количество	-2180
рия	-2181
тет	-2182
атра	-2183
вано	-2184
держи	-2185
▁доку	-2186
▁побе	-2187
▁болез	-2188
гля	-2189
гни	-2190
мого	-2191
▁вме	-2192
чного	-2193
▁парти	-2194
▁реали	-2195
▁чемпи	-2196
энер	-2197
▁бое	-2198
льного	-2199
▁электроэнер	-2200
шки	-2201
щем	-2202
ледо	-2203
▁своей	-2204
▁провед	-2205
▁руководи	-2206
бой	-2207
▁заво	-2208
ствовать	-2209
тить	-2210
▁сне	-2211
▁неко	-2212
▁переда	-2213
▁увеличи	-2214
вез	-2215
▁пен	-2216
▁стре	-2217
▁прокуро	-2218
▁средства	-2219
▁мощ	-2220
▁пси	-2221
▁фра	-2222
▁девя	-2223
▁кора	-2224
▁служ	-2225
▁часов	-2226
дел	-2227
чер	-2228
мати	-2229
пита	-2230
▁семи	-2231
▁генера	-2232
▁инвести	-2233
▁производ	-2234
▁представители	-2235
хов	-2236
▁тя	-2237
цией	-2238
▁гро	-2239
ваний	-2240
▁меди	-2241
нологи	-2242
▁рынок	-2243
нами	-2244
нови	-2245
▁жела	-2246
▁самым	-2247
▁сдела	-2248
рования	-2249
скус	-2250
▁одна	-2251
▁свою	-2252
▁вчера	-2253
▁матери	-2254
▁способ	-2255
▁театра	-2256
▁акционе	-2257
▁израиль	-2258
дах	-2259
пута	-2260
рода	-2261
▁депута	-2262
ев	-2263
кая	-2264
нием	-2265
▁пока	-2266
▁новый	-2267
▁проис	-2268
▁рынка	-2269
▁законо	-2270
▁москвы	-2271
▁образо	-2272
▁компьют	-2273
▁министер	-2274
▁продолжа	-2275
три	-2276
▁мя	-2277
дать	-2278
▁дни	-2279
▁бога	-2280
▁куль	-2281
▁стар	-2282
▁солда	-2283
▁управ	-2284
стоится	-2285
▁направ	-2286
▁постро	-2287
▁состоится	-2288
▁миллиардов	-2289
дки	-2290
нки	-2291
боль	-2292
енно	-2293
▁вол	-2294
▁кни	-2295
ством	-2296
ствуют	-2297
▁треть	-2298
▁одного	-2299
кси	-2300
шее	-2301
жены	-2302
▁чеч	-2303
▁взры	-2304
▁возра	-2305
▁национа	-2306
▁семьдесят	-2307
щий	-2308
▁дея	-2309
▁демо	-2310
▁конце	-2311
▁пенси	-2312
▁прибы	-2313
▁проек	-2314
дцатого	-2315
▁вокруг	-2316
ом	-2317
тор	-2318
▁лё	-2319
▁осо	-2320
▁выпу	-2321
▁удалось	-2322
▁пятьдесят	-2323
пли	-2324
тар	-2325
▁выше	-2326
▁запа	-2327
▁почти	-2328
▁которы	-2329
▁официа	-2330
▁управля	-2331
▁полностью	-2332
гию	-2333
▁оте	-2334
мость	-2335
ндида	-2336
▁бума	-2337
▁тари	-2338
▁произо	-2339
▁военные	-2340
▁журнали	-2341
▁кандида	-2342
дят	-2343
▁ши	-2344
чном	-2345
▁исс	-2346
▁катастро	-2347
кло	-2348
ктер	-2349
суще	-2350
▁кро	-2351
▁спа	-2352
льным	-2353
▁миро	-2354
▁суде	-2355
▁искус	-2356
▁общества	-2357
▁характер	-2358
▁компьютер	-2359
ья	-2360
▁ат	-2361
▁нам	-2362
▁шко	-2363
графи	-2364
▁бело	-2365
▁заме	-2366
▁осво	-2367
работа	-2368
ческое	-2369
▁всего	-2370
▁разме	-2371
чествен	-2372
▁выстав	-2373
ственных	-2374
▁акционеров	-2375
шно	-2376
щее	-2377
▁ал	-2378
тиво	-2379
▁буду	-2380
▁зада	-2381
▁внима	-2382
▁заклю	-2383
▁значи	-2384
▁скоро	-2385
▁получи	-2386
▁противо	-2387
▁сегодняш	-2388
дель	-2389
фика	-2390
▁ино	-2391
▁некоторы	-2392
▁продукции	-2393
▁центральный	-2394
туры	-2395
▁ряд	-2396
▁уни	-2397
▁чет	-2398
▁экс	-2399
▁неза	-2400
▁намерен	-2401
дам	-2402
тии	-2403
▁диа	-2404
▁объе	-2405
▁деятель	-2406
▁экономики	-2407
льта	-2408
ляет	-2409
▁гер	-2410
лакти	-2411
▁объё	-2412
▁готов	-2413
▁стать	-2414
▁кредиторов	-2415
гру	-2416
тера	-2417
▁бед	-2418
▁дли	-2419
▁рез	-2420
▁сум	-2421
нитель	-2422
▁работу	-2423
▁состав	-2424
▁встреча	-2425
▁институ	-2426
сит	-2427
более	-2428
▁речь	-2429
▁космо	-2430
▁девяно	-2431
▁капита	-2432
▁кредит	-2433
▁проводи	-2434
▁рассмот	-2435
▁финансо	-2436
▁наиболее	-2437
▁государства	-2438
зад	-2439
кро	-2440
кты	-2441
мыш	-2442
сили	-2443
чено	-2444
▁пря	-2445
▁выда	-2446
▁золо	-2447
мышлен	-2448
▁кажды	-2449
▁назад	-2450
▁нефти	-2451
▁опреде	-2452
▁сообщи	-2453
▁бизнесмен	-2454
▁директоров	-2455
ху	-2456
дии	-2457
лением	-2458
▁измен	-2459
▁осуще	-2460
▁требо	-2461
▁должно	-2462
▁владими	-2463
▁конкурс	-2464
рав	-2465
нику	-2466
рази	-2467
ссия	-2468
явил	-2469
▁гео	-2470
льная	-2471
▁поги	-2472
▁запре	-2473
▁группа	-2474
▁являются	-2475
ква	-2476
ское	-2477
▁заяв	-2478
кладчи	-2479
нского	-2480
▁совер	-2481
▁стран	-2482
ческими	-2483
▁завода	-2484
▁процесс	-2485
▁транспо	-2486
▁заседание	-2487
блю	-2488
док	-2489
ьер	-2490
▁дело	-2491
▁стру	-2492
▁предпо	-2493
▁своего	-2494
▁совета	-2495
▁вернуть	-2496
▁уровень	-2497
кта	-2498
оны	-2499
вала	-2500
▁жен	-2501
зация	-2502
▁курс	-2503
▁прем	-2504
▁приш	-2505
▁закры	-2506
▁связи	-2507
▁экспе	-2508
▁перево	-2509
лии	-2510
кими	-2511
тора	-2512
траж	-2513
▁акт	-2514
▁сов	-2515
веден	-2516
видет	-2517
▁арби	-2518
▁испол	-2519
▁любой	-2520
▁рожде	-2521
▁быстро	-2522
▁десяти	-2523
▁настро	-2524
▁арбитраж	-2525
ряд	-2526
сам	-2527
▁ху	-2528
▁ци	-2529
рение	-2530
форми	-2531
▁един	-2532
▁полно	-2533
▁телефон	-2534
чё	-2535
ган	-2536
точ	-2537
эро	-2538
▁тол	-2539
компа	-2540
▁цвет	-2541
▁комиссии	-2542
▁безопасности	-2543
▁шу	-2544
▁мор	-2545
нению	-2546
▁кофе	-2547
▁пресс	-2548
▁средств	-2549
▁тридцати	-2550
мя	-2551
фы	-2552
чай	-2553
рный	-2554
стер	-2555
▁взя	-2556
▁низ	-2557
руется	-2558
▁магни	-2559
▁молоды	-2560
▁собрание	-2561
▁технологи	-2562
гре	-2563
выми	-2564
тной	-2565
чина	-2566
▁вза	-2567
▁добы	-2568
▁дома	-2569
▁надо	-2570
ждение	-2571
▁корре	-2572
▁нужно	-2573
тельных	-2574
▁председа	-2575
▁девяносто	-2576
▁переговоров	-2577
щие	-2578
явля	-2579
сказа	-2580
▁жало	-2581
▁зако	-2582
▁ходе	-2583
▁акции	-2584
▁тепло	-2585
▁городе	-2586
▁комитет	-2587
▁отечествен	-2588
▁республики	-2589
гле	-2590
еру	-2591
лён	-2592
стива	-2593
▁избира	-2594
▁вопросы	-2595
▁фестива	-2596
▁осуществ	-2597
шка	-2598
▁её	-2599
жили	-2600
▁ген	-2601
▁коль	-2602
▁свет	-2603
ровали	-2604
▁стала	-2605
▁обвиня	-2606
▁самолё	-2607
беж	-2608
дви	-2609
той	-2610
дает	-2611
льзу	-2612
нару	-2613
щены	-2614
▁сим	-2615
▁ску	-2616
▁фун	-2617
▁друг	-2618
▁мень	-2619
▁назы	-2620
▁завод	-2621
▁белору	-2622
▁обнару	-2623
▁учёные	-2624
▁материа	-2625
ерт	-2626
куп	-2627
них	-2628
щих	-2629
▁аф	-2630
тыся	-2631
част	-2632
▁пят	-2633
менты	-2634
полне	-2635
▁даже	-2636
▁инди	-2637
▁своё	-2638
▁вполне	-2639
▁интере	-2640
▁галакти	-2641
▁двухтыся	-2642
мом	-2643
▁важ	-2644
▁деву	-2645
чается	-2646
челети	-2647
▁допол	-2648
▁новых	-2649
▁работ	-2650
▁движение	-2651
▁интернет	-2652
▁тысячелети	-2653
вок	-2654
кке	-2655
рию	-2656
мина	-2657
кости	-2658
▁аэро	-2659
▁дума	-2660
▁попы	-2661
▁став	-2662
▁разре	-2663
▁снизи	-2664
▁социа	-2665
▁хокке	-2666
▁прошлом	-2667
▁остаётся	-2668
▁руководство	-2669
вин	-2670
доб	-2671
ель	-2672
шую	-2673
жной	-2674
ница	-2675
матри	-2676
▁годо	-2677
▁мета	-2678
▁рели	-2679
▁трав	-2680
▁косми	-2681
▁профе	-2682
▁резер	-2683
▁эволю	-2684
▁выступи	-2685
▁заверши	-2686
▁промышлен	-2687
▁большинство	-2688
▁аб	-2689
бран	-2690
вить	-2691
дной	-2692
пить	-2693
▁пам	-2694
▁чер	-2695
▁чув	-2696
клара	-2697
телем	-2698
▁льго	-2699
▁нару	-2700
▁насе	-2701
ходить	-2702
▁колле	-2703
▁кризи	-2704
▁рубля	-2705
▁стара	-2706
▁власть	-2707
▁должна	-2708
▁деклара	-2709
▁участие	-2710
▁петербур	-2711
▁чемпиона	-2712
дил	-2713
верх	-2714
раня	-2715
▁мин	-2716
▁сде	-2717
жений	-2718
ломет	-2719
▁веду	-2720
▁коре	-2721
▁раза	-2722
▁объяв	-2723
▁коммер	-2724
▁пересе	-2725
▁период	-2726
▁километ	-2727
▁реформа	-2728
ов	-2729
рое	-2730
сно	-2731
шёл	-2732
дный	-2733
жить	-2734
▁дней	-2735
▁напо	-2736
▁пози	-2737
▁пунк	-2738
▁пути	-2739
▁резу	-2740
▁суда	-2741
▁новой	-2742
▁совре	-2743
ционный	-2744
▁послед	-2745
▁котиров	-2746
▁общество	-2747
▁результа	-2748
▁переговоры	-2749
гко	-2750
ект	-2751
вших	-2752
дают	-2753
▁муж	-2754
▁тон	-2755
▁эпо	-2756
▁деле	-2757
▁кита	-2758
▁теку	-2759
▁филь	-2760
▁инспе	-2761
▁судеб	-2762
▁топли	-2763
▁внутри	-2764
▁доллара	-2765
▁внимание	-2766
▁состоянии	-2767
▁транспорт	-2768
▁шестьдесят	-2769
▁автомобилей	-2770
каб	-2771
▁ап	-2772
кцию	-2773
щего	-2774
▁мат	-2775
▁прод	-2776
▁угле	-2777
▁декаб	-2778
▁стихи	-2779
▁освобо	-2780
▁сорока	-2781
▁исследо	-2782
▁структу	-2783
▁ближайшие	-2784
лия	-2785
▁уз	-2786
цами	-2787
чиво	-2788
▁где	-2789
▁упо	-2790
рения	-2791
▁если	-2792
▁моро	-2793
▁отра	-2794
▁пари	-2795
▁худо	-2796
тельное	-2797
ходятся	-2798
▁успешно	-2799
▁экспози	-2800
надцатого	-2801
тбо	-2802
чек	-2803
дить	-2804
рных	-2805
щена	-2806
▁дан	-2807
▁мэр	-2808
шении	-2809
▁вызы	-2810
▁дере	-2811
▁жерт	-2812
▁пись	-2813
▁затра	-2814
▁новая	-2815
▁новое	-2816
▁паспо	-2817
▁превы	-2818
▁пропа	-2819
▁роста	-2820
▁стоит	-2821
▁футбо	-2822
▁контра	-2823
▁просто	-2824
▁францу	-2825
▁производи	-2826
ин	-2827
вей	-2828
▁зу	-2829
ктом	-2830
рого	-2831
▁ощу	-2832
▁вось	-2833
▁каче	-2834
▁непо	-2835
▁подъ	-2836
▁пожа	-2837
▁учре	-2838
▁кораб	-2839
▁симво	-2840
▁войска	-2841
пут	-2842
чат	-2843
▁био	-2844
▁бир	-2845
▁зер	-2846
▁игра	-2847
▁клин	-2848
▁марш	-2849
▁самые	-2850
▁февра	-2851
▁обрати	-2852
▁конститу	-2853
нул	-2854
шены	-2855
лении	-2856
▁маши	-2857
▁оцен	-2858
▁союз	-2859
▁цена	-2860
▁восто	-2861
▁расши	-2862
▁счета	-2863
▁свидет	-2864
▁стороны	-2865
▁рождествен	-2866
▁американских	-2867
▁государственной	-2868
бан	-2869
вёз	-2870
езд	-2871
кар	-2872
чис	-2873
чия	-2874
шла	-2875
▁жд	-2876
ктов	-2877
▁выз	-2878
▁гло	-2879
▁ули	-2880
весто	-2881
▁дохо	-2882
▁испы	-2883
▁моря	-2884
▁неда	-2885
▁ниже	-2886
▁отпу	-2887
▁похо	-2888
никами	-2889
▁парла	-2890
▁здания	-2891
▁первые	-2892
▁природ	-2893
▁времени	-2894
▁инвесто	-2895
▁обсужда	-2896
▁русский	-2897
▁установ	-2898
▁находится	-2899
▁предприятия	-2900
имо	-2901
нюю	-2902
баты	-2903
дили	-2904
циях	-2905
чать	-2906
▁сан	-2907
▁упа	-2908
рудни	-2909
▁акти	-2910
▁геро	-2911
▁прин	-2912
▁сель	-2913
жением	-2914
рабаты	-2915
▁возро	-2916
▁имеют	-2917
▁права	-2918
▁сотни	-2919
▁сразу	-2920
тельный	-2921
▁взаимо	-2922
▁достиг	-2923
▁музыка	-2924
▁украины	-2925
▁иностран	-2926
лиа	-2927
мут	-2928
деся	-2929
купа	-2930
кция	-2931
мети	-2932
▁гимн	-2933
▁даль	-2934
▁евро	-2935
▁лиде	-2936
▁неде	-2937
▁роди	-2938
▁рыба	-2939
▁смер	-2940
▁задол	-2941
▁путин	-2942
▁филиа	-2943
▁конфли	-2944
▁револю	-2945
▁телевид	-2946
▁четырёх	-2947
▁существует	-2948
жит	-2949
пят	-2950
▁век	-2951
▁ита	-2952
▁лик	-2953
▁озе	-2954
▁сро	-2955
лений	-2956
▁женщи	-2957
▁психи	-2958
▁измени	-2959
▁пользо	-2960
▁центре	-2961
▁америки	-2962
▁системы	-2963
▁условия	-2964
▁владимир	-2965
▁галактик	-2966
▁миллиона	-2967
▁котировки	-2968
▁правительства	-2969
гам	-2970
гим	-2971
лый	-2972
цин	-2973
гули	-2974
нему	-2975
пара	-2976
тков	-2977
чики	-2978
▁вен	-2979
▁глу	-2980
▁дом	-2981
▁зри	-2982
▁сил	-2983
▁суб	-2984
город	-2985
дётся	-2986
зован	-2987
ферен	-2988
▁визи	-2989
▁гроз	-2990
▁лите	-2991
▁пово	-2992
гранич	-2993
▁балан	-2994
▁литов	-2995
▁нашей	-2996
▁нефтя	-2997
▁отмет	-2998
▁покры	-2999
▁приоб	-3000
▁торго	-3001
вателей	-3002
новятся	-3003
▁привле	-3004
▁интерес	-3005
▁коммуни	-3006
▁переход	-3007
▁согласи	-3008
▁движения	-3009
▁современ	-3010
жил	-3011
зии	-3012
лок	-3013
сле	-3014
чёт	-3015
креп	-3016
льзя	-3017
ющей	-3018
▁кто	-3019
▁нуж	-3020
▁сбо	-3021
▁сли	-3022
стема	-3023
щение	-3024
▁вари	-3025
▁влия	-3026
▁внеш	-3027
▁горя	-3028
▁крем	-3029
▁нали	-3030
ческом	-3031
▁коман	-3032
▁надзо	-3033
▁отсут	-3034
▁нельзя	-3035
тельства	-3036
▁месторо	-3037
▁система	-3038
▁ситуация	-3039
▁авиакомпа	-3040
▁демократи	-3041
▁находятся	-3042
▁администрации	-3043
шен	-3044
жено	-3045
рной	-3046
▁меч	-3047
восто	-3048
чении	-3049
▁двор	-3050
▁каза	-3051
▁реко	-3052
▁след	-3053
▁массо	-3054
▁рекла	-3055
▁собой	-3056
▁стату	-3057
▁велико	-3058
▁основа	-3059
▁первой	-3060
▁прошёл	-3061
▁француз	-3062
▁проблемы	-3063
▁прошлого	-3064
▁условиях	-3065
▁комплекса	-3066
▁программу	-3067
дой	-3068
гром	-3069
дних	-3070
обра	-3071
▁ава	-3072
▁ори	-3073
▁том	-3074
▁чёр	-3075
ждены	-3076
ристи	-3077
▁удов	-3078
▁огром	-3079
▁посвя	-3080
▁публи	-3081
▁фирмы	-3082
▁форма	-3083
▁худож	-3084
▁помога	-3085
▁удовлет	-3086
▁компаний	-3087
▁культуры	-3088
▁поставки	-3089
▁професси	-3090
▁работать	-3091
▁ближайшее	-3092
▁двенадцати	-3093
бир	-3094
бера	-3095
мены	-3096
слов	-3097
йские	-3098
▁близ	-3099
▁газо	-3100
▁коро	-3101
▁част	-3102
▁широ	-3103
▁кисло	-3104
▁службы	-3105
▁помощью	-3106
▁премьер	-3107
▁энергии	-3108
▁проблема	-3109
▁сотрудни	-3110
хва	-3111
езда	-3112
▁нач	-3113
▁пор	-3114
телям	-3115
▁выну	-3116
▁выро	-3117
▁жиль	-3118
▁войны	-3119
▁газет	-3120
▁памят	-3121
▁своим	-3122
▁супер	-3123
▁возник	-3124
▁относи	-3125
▁поддер	-3126
▁пенсион	-3127
▁свидетель	-3128
▁российских	-3129
▁дополнитель	-3130
ёж	-3131
сня	-3132
ыне	-3133
нтов	-3134
ющим	-3135
▁звез	-3136
▁звёз	-3137
▁ныне	-3138
▁спут	-3139
▁уста	-3140
▁лекар	-3141
▁потер	-3142
▁устро	-3143
станция	-3144
ступает	-3145
▁начала	-3146
ственный	-3147
▁действи	-3148
▁задержа	-3149
▁которые	-3150
▁потреби	-3151
▁планирует	-3152
зоб	-3153
мых	-3154
пря	-3155
тил	-3156
мира	-3157
нден	-3158
▁уре	-3159
зацию	-3160
▁атом	-3161
▁ждёт	-3162
▁пото	-3163
▁пыта	-3164
ляется	-3165
▁митин	-3166
▁одной	-3167
▁решил	-3168
спонден	-3169
▁беспла	-3170
▁началь	-3171
▁страну	-3172
▁хорошо	-3173
▁центро	-3174
▁жителей	-3175
▁конферен	-3176
▁проектов	-3177
▁рассматри	-3178
▁увеличить	-3179
▁планируется	-3180
▁корреспонден	-3181
▁министерство	-3182
ор	-3183
рю	-3184
лях	-3185
пет	-3186
сах	-3187
шек	-3188
чена	-3189
▁вес	-3190
▁куп	-3191
▁хле	-3192
▁хол	-3193
вался	-3194
крета	-3195
▁отве	-3196
десяти	-3197
кового	-3198
▁гаран	-3199
▁глоба	-3200
▁погиб	-3201
▁секто	-3202
▁торги	-3203
ционной	-3204
▁потреб	-3205
▁принци	-3206
▁присут	-3207
▁россию	-3208
▁уровне	-3209
▁уровня	-3210
▁встрети	-3211
▁очередь	-3212
▁полномо	-3213
▁сообщил	-3214
▁задолжен	-3215
▁существу	-3216
▁обществен	-3217
▁предостав	-3218
▁активность	-3219
▁километров	-3220
▁международный	-3221
▁электроэнергию	-3222
бро	-3223
дро	-3224
еди	-3225
щую	-3226
ёст	-3227
кипа	-3228
рные	-3229
щено	-3230
▁лёд	-3231
▁реб	-3232
▁сай	-3233
говор	-3234
▁жёст	-3235
▁лени	-3236
▁мили	-3237
▁роль	-3238
▁умер	-3239
нейшим	-3240
▁доста	-3241
▁подпи	-3242
▁слова	-3243
▁техни	-3244
▁трево	-3245
▁шести	-3246
▁экипа	-3247
▁газпро	-3248
▁другие	-3249
▁заявил	-3250
▁начина	-3251
▁станет	-3252
▁министр	-3253
▁согласо	-3254
▁считает	-3255
▁течение	-3256
бет	-3257
кли	-3258
шем	-3259
днее	-3260
дное	-3261
дным	-3262
▁ини	-3263
▁иск	-3264
▁лод	-3265
▁ска	-3266
емого	-3267
йских	-3268
лизма	-3269
прият	-3270
яется	-3271
▁идут	-3272
▁нема	-3273
▁окру	-3274
▁прав	-3275
▁реда	-3276
▁функ	-3277
▁цель	-3278
няются	-3279
▁детей	-3280
▁метро	-3281
▁санкт	-3282
▁сумму	-3283
▁требу	-3284
▁усили	-3285
▁чечне	-3286
▁члено	-3287
ходится	-3288
▁акцион	-3289
▁вечера	-3290
▁задача	-3291
▁малень	-3292
▁оружие	-3293
▁третье	-3294
петербур	-3295
▁фракции	-3296
▁прокурор	-3297
▁развития	-3298
▁эволюции	-3299
▁некоторые	-3300
▁московский	-3301
▁деятельность	-3302
▁представитель	-3303
▁инвестиционных	-3304
рко	-3305
сни	-3306
тую	-3307
цам	-3308
шая	-3309
▁ца	-3310
▁яв	-3311
бные	-3312
йдут	-3313
хани	-3314
▁ито	-3315
▁ото	-3316
▁сек	-3317
▁соо	-3318
▁цер	-3319
▁вете	-3320
▁делу	-3321
▁посо	-3322
щается	-3323
▁иметь	-3324
▁легко	-3325
▁найти	-3326
▁пасса	-3327
▁бывший	-3328
▁занима	-3329
▁механи	-3330
▁момент	-3331
▁пригла	-3332
▁объедин	-3333
▁соответ	-3334
▁снижение	-3335
▁позволяет	-3336
▁становятся	-3337
жей	-3338
лки	-3339
лую	-3340
мые	-3341
чих	-3342
шло	-3343
шта	-3344
веро	-3345
вили	-3346
виси	-3347
жные	-3348
ницы	-3349
сона	-3350
чную	-3351
шком	-3352
▁бра	-3353
▁гос	-3354
▁пои	-3355
▁сме	-3356
▁тео	-3357
▁япо	-3358
клады	-3359
логии	-3360
▁напи	-3361
▁одно	-3362
▁риск	-3363
▁юрий	-3364
▁выбра	-3365
▁вышли	-3366
▁грузо	-3367
▁друга	-3368
▁леген	-3369
▁своём	-3370
▁индекс	-3371
▁партии	-3372
▁высказа	-3373
▁затраты	-3374
▁первого	-3375
▁персона	-3376
▁принято	-3377
▁следует	-3378
▁слишком	-3379
кладчиков	-3380
▁независи	-3381
▁провести	-3382
▁процента	-3383
▁собрании	-3384
▁последние	-3385
▁прокурату	-3386
▁разработа	-3387
▁участники	-3388
▁информация	-3389
▁предприятие	-3390
▁профессиона	-3391
▁электроэнергии	-3392
др	-3393
жё	-3394
мым	-3395
сел	-3396
шед	-3397
вики	-3398
новь	-3399
фере	-3400
▁кры	-3401
лению	-3402
мости	-3403
▁афри	-3404
▁наме	-3405
▁попу	-3406
▁вновь	-3407
▁десят	-3408
▁наблю	-3409
▁новым	-3410
▁число	-3411
надцати	-3412
▁неболь	-3413
▁прекра	-3414
▁случае	-3415
▁страхо	-3416
▁насчиты	-3417
▁развитие	-3418
▁предприятий	-3419
вен	-3420
сом	-3421
тное	-3422
▁гре	-3423
▁мас	-3424
▁пов	-3425
▁сем	-3426
▁учи	-3427
скать	-3428
▁гада	-3429
▁наде	-3430
▁озна	-3431
▁орби	-3432
▁владе	-3433
▁лукой	-3434
▁тради	-3435
▁высоко	-3436
▁статус	-3437
▁январе	-3438
ционного	-3439
▁получил	-3440
▁сборная	-3441
▁открытие	-3442
▁собствен	-3443
▁создании	-3444
▁законопро	-3445
▁двенадцать	-3446
▁технологий	-3447
▁губернатора	-3448
нё	-3449
мах	-3450
нил	-3451
зных	-3452
лять	-3453
ньше	-3454
рыва	-3455
нётся	-3456
тором	-3457
▁впер	-3458
▁напа	-3459
▁номе	-3460
▁тури	-3461
▁часы	-3462
▁равно	-3463
стоянии	-3464
тельным	-3465
▁восьми	-3466
▁москви	-3467
▁раньше	-3468
▁процеду	-3469
▁качестве	-3470
▁расстоянии	-3471
▁участников	-3472
мпа	-3473
▁ох	-3474
стья	-3475
чета	-3476
▁бак	-3477
▁ему	-3478
▁спи	-3479
▁юго	-3480
▁годы	-3481
▁несо	-3482
▁спро	-3483
▁сцен	-3484
▁диску	-3485
▁рядом	-3486
▁жизнен	-3487
▁маршру	-3488
▁прояви	-3489
▁создан	-3490
▁сочета	-3491
читывать	-3492
▁подтвер	-3493
▁перерабо	-3494
▁опасность	-3495
▁чемпионат	-3496
дя	-3497
лл	-3498
десь	-3499
рией	-3500
тори	-3501
▁изъ	-3502
▁ими	-3503
▁нем	-3504
▁поэ	-3505
▁сла	-3506
▁крае	-3507
▁возоб	-3508
▁заказ	-3509
▁здесь	-3510
▁части	-3511
структу	-3512
▁доллар	-3513
▁оружия	-3514
▁периода	-3515
▁документы	-3516
воз	-3517
вут	-3518
ряс	-3519
▁ам	-3520
лизм	-3521
чего	-3522
▁зат	-3523
▁хоч	-3524
▁ассо	-3525
▁край	-3526
▁орфо	-3527
▁спец	-3528
▁срав	-3529
▁стек	-3530
льными	-3531
▁акаде	-3532
▁живут	-3533
▁нынеш	-3534
▁психо	-3535
▁снижа	-3536
▁труда	-3537
▁борьба	-3538
▁вчераш	-3539
▁двести	-3540
▁каждый	-3541
▁клинто	-3542
чивается	-3543
▁больных	-3544
▁несколь	-3545
▁поддерж	-3546
▁полтора	-3547
▁русской	-3548
▁прекрати	-3549
▁орфографи	-3550
▁государство	-3551
кет	-3552
лаг	-3553
мор	-3554
тых	-3555
щая	-3556
ясь	-3557
▁пя	-3558
руют	-3559
тная	-3560
▁бом	-3561
▁кво	-3562
▁лёг	-3563
▁рей	-3564
▁уби	-3565
ствии	-3566
▁авгу	-3567
▁бурь	-3568
▁кана	-3569
▁одну	-3570
▁окон	-3571
▁удоб	-3572
▁буква	-3573
▁депре	-3574
▁земле	-3575
▁новые	-3576
▁турни	-3577
▁часто	-3578
▁бумаги	-3579
▁взрыва	-3580
▁военно	-3581
▁генети	-3582
▁делега	-3583
▁инициа	-3584
▁повыси	-3585
▁холдин	-3586
▁неожида	-3587
▁переста	-3588
▁сохраня	-3589
▁урегули	-3590
▁обществе	-3591
▁регионов	-3592
▁ситуации	-3593
▁кандидату	-3594
▁проблемой	-3595
▁противоре	-3596
▁инвесторов	-3597
▁политических	-3598
ил	-3599
бин	-3600
ерв	-3601
зом	-3602
лых	-3603
лёт	-3604
рту	-3605
чий	-3606
щей	-3607
▁ущ	-3608
бора	-3609
дных	-3610
комп	-3611
нных	-3612
стью	-3613
суль	-3614
тный	-3615
шает	-3616
щать	-3617
▁жид	-3618
▁зре	-3619
▁лес	-3620
▁оса	-3621
▁сам	-3622
▁сна	-3623
▁ува	-3624
ванию	-3625
левых	-3626
щении	-3627
▁брон	-3628
▁воды	-3629
▁думы	-3630
▁изба	-3631
▁нерв	-3632
▁поко	-3633
▁рапи	-3634
▁того	-3635
▁угро	-3636
ментов	-3637
▁вечер	-3638
▁выпла	-3639
▁комна	-3640
▁крови	-3641
▁ответ	-3642
▁связа	-3643
кретарь	-3644
▁входят	-3645
▁голоса	-3646
▁группы	-3647
▁избран	-3648
▁мастер	-3649
▁обязан	-3650
▁пассажи	-3651
▁подписа	-3652
▁рекомен	-3653
▁решений	-3654
▁сохрани	-3655
▁экспеди	-3656
▁двадцати	-3657
▁законода	-3658
▁индексов	-3659
▁мощности	-3660
▁восстанов	-3661
▁оказались	-3662
▁программы	-3663
▁московской	-3664
▁использовать	-3665
▁управляющего	-3666
тр	-3667
бые	-3668
еме	-3669
хот	-3670
чку	-3671
жков	-3672
жным	-3673
▁зай	-3674
▁све	-3675
верен	-3676
лести	-3677
новен	-3678
шений	-3679
▁выра	-3680
▁даёт	-3681
▁изго	-3682
▁июня	-3683
▁нере	-3684
▁печа	-3685
▁попа	-3686
▁рыно	-3687
▁сезо	-3688
▁снег	-3689
▁тюрь	-3690
▁услу	-3691
▁фонд	-3692
▁штур	-3693
▁этой	-3694
житель	-3695
ступил	-3696
▁агент	-3697
▁верну	-3698
▁верто	-3699
▁журна	-3700
▁науки	-3701
▁новую	-3702
▁терро	-3703
▁эпоху	-3704
рование	-3705
ставили	-3706
тельные	-3707
▁немало	-3708
▁сторон	-3709
▁палести	-3710
▁продажа	-3711
▁состоит	-3712
▁функции	-3713
▁граждане	-3714
▁комплекс	-3715
▁операции	-3716
▁придётся	-3717
▁соглашение	-3718
▁политической	-3719
▁производство	-3720
цио	-3721
▁ке	-3722
гами	-3723
кций	-3724
лить	-3725
мест	-3726
нный	-3727
сант	-3728
ским	-3729
слав	-3730
▁нор	-3731
▁убы	-3732
никам	-3733
▁всем	-3734
▁жить	-3735
▁нега	-3736
▁счёт	-3737
прияти	-3738
телями	-3739
▁возбу	-3740
▁восем	-3741
▁дорож	-3742
▁лучше	-3743
▁привы	-3744
держать	-3745
▁алкого	-3746
▁десант	-3747
▁золото	-3748
▁италии	-3749
▁кольцо	-3750
▁поводу	-3751
▁популя	-3752
▁четвёр	-3753
▁членов	-3754
лировать	-3755
▁депутат	-3756
▁закончи	-3757
▁прибыль	-3758
▁пройдёт	-3759
▁совмест	-3760
формирова	-3761
▁выставка	-3762
▁основной	-3763
▁поддержи	-3764
▁подорожа	-3765
▁постанов	-3766
▁создание	-3767
▁девятьсот	-3768
▁магнитных	-3769
▁фестиваль	-3770
▁значительно	-3771
▁административ	-3772
атр	-3773
дус	-3774
ент	-3775
лин	-3776
рус	-3777
▁бри	-3778
▁изу	-3779
▁убе	-3780
нской	-3781
равда	-3782
слуша	-3783
▁капу	-3784
▁поки	-3785
▁пост	-3786
▁появ	-3787
▁тяжё	-3788
ведена	-3789
зовать	-3790
▁беспо	-3791
▁ведут	-3792
▁выдви	-3793
▁герма	-3794
▁карма	-3795
▁мечта	-3796
▁могли	-3797
▁оборо	-3798
▁объек	-3799
▁устой	-3800
▁форме	-3801
▁члены	-3802
▁догово	-3803
▁европе	-3804
▁либера	-3805
▁лукойл	-3806
▁первая	-3807
▁прошло	-3808
▁работе	-3809
▁собира	-3810
▁солдат	-3811
▁уголов	-3812
▁экспер	-3813
ственной	-3814
▁влияние	-3815
▁месяцев	-3816
▁наиболь	-3817
▁направи	-3818
▁оправда	-3819
▁разреши	-3820
▁русские	-3821
▁франции	-3822
▁комиссия	-3823
▁миллионы	-3824
▁распреде	-3825
▁изменения	-3826
▁стоимость	-3827
▁белоруссии	-3828
▁показатели	-3829
▁представля	-3830
▁российские	-3831
▁арбитражный	-3832
▁одиннадцать	-3833
▁организация	-3834
ум	-3835
вший	-3836
нить	-3837
▁вид	-3838
▁гри	-3839
▁дел	-3840
▁нес	-3841
▁сет	-3842
▁сня	-3843
▁эту	-3844
жении	-3845
чному	-3846
▁водо	-3847
▁опла	-3848
▁армии	-3849
▁глава	-3850
▁откро	-3851
▁отпра	-3852
▁призы	-3853
▁роман	-3854
▁рубеж	-3855
▁чечни	-3856
▁помощи	-3857
▁правых	-3858
▁решили	-3859
▁сильно	-3860
▁судьба	-3861
▁отправи	-3862
▁площади	-3863
▁располо	-3864
▁сторону	-3865
▁населения	-3866
▁состояние	-3867
▁декларации	-3868
ток	-3869
будь	-3870
ваны	-3871
груз	-3872
нова	-3873
ртив	-3874
цени	-3875
▁гиб	-3876
▁пле	-3877
▁тен	-3878
дения	-3879
летия	-3880
ником	-3881
нский	-3882
чными	-3883
▁бюро	-3884
▁обле	-3885
нибудь	-3886
▁отклю	-3887
▁инстру	-3888
▁народа	-3889
▁первым	-3890
▁спортив	-3891
▁вызывает	-3892
▁остались	-3893
▁помогает	-3894
▁пришлось	-3895
▁журналиста	-3896
▁экспозиция	-3897
▁европейских	-3898
▁двухтысячного	-3899
вёл	-3900
раб	-3901
онах	-3902
прос	-3903
рева	-3904
стры	-3905
солют	-3906
▁араб	-3907
▁парт	-3908
▁пору	-3909
▁собы	-3910
▁язык	-3911
способ	-3912
▁балет	-3913
▁гиган	-3914
▁париж	-3915
▁патри	-3916
▁попыт	-3917
▁вместо	-3918
▁готовы	-3919
▁отказа	-3920
▁распро	-3921
▁случай	-3922
▁четвер	-3923
▁абсолют	-3924
▁главный	-3925
▁клинтон	-3926
▁экспери	-3927
▁вынужден	-3928
▁переселен	-3929
гио	-3930
кую	-3931
цеп	-3932
▁кап	-3933
время	-3934
▁води	-3935
▁масс	-3936
▁мере	-3937
▁лидер	-3938
▁пусты	-3939
▁рецеп	-3940
▁вместе	-3941
▁жители	-3942
▁проект	-3943
▁тарифы	-3944
▁хоккей	-3945
▁энерго	-3946
▁вовремя	-3947
▁встречу	-3948
▁желание	-3949
▁перейти	-3950
▁религио	-3951
▁станции	-3952
▁февраля	-3953
▁организа	-3954
▁пытается	-3955
▁российским	-3956
▁удовлетвор	-3957
▁деятельности	-3958
▁руководитель	-3959
шё	-3960
льт	-3961
▁шо	-3962
вому	-3963
льщи	-3964
▁або	-3965
▁вну	-3966
▁зуб	-3967
▁ниж	-3968
▁всей	-3969
▁дешё	-3970
▁диск	-3971
▁круг	-3972
▁отло	-3973
▁силу	-3974
ждений	-3975
летряс	-3976
частья	-3977
▁взрыв	-3978
▁землю	-3979
▁моста	-3980
▁чечен	-3981
▁август	-3982
▁белого	-3983
▁коллек	-3984
▁недели	-3985
▁офицер	-3986
▁писать	-3987
▁активов	-3988
▁благода	-3989
▁выборов	-3990
▁границу	-3991
▁достато	-3992
▁израиля	-3993
▁планеты	-3994
▁финанси	-3995
структури	-3996
▁возраста	-3997
▁контроль	-3998
▁объявлен	-3999
▁причиной	-4000
▁землетряс	-4001
▁петербург	-4002
▁половиной	-4003
▁центробан	-4004
▁направлены	-4005
▁парламента	-4006
▁увеличился	-4007
▁энергетики	-4008
▁образование	-4009
▁образования	-4010
▁реструктури	-4011
▁рождественские	-4012
сф	-4013
пти	-4014
рес	-4015
сия	-4016
хом	-4017
щим	-4018
вало	-4019
дуют	-4020
зору	-4021
лига	-4022
обще	-4023
тика	-4024
чены	-4025
▁ико	-4026
▁род	-4027
▁сих	-4028
▁тек	-4029
▁шта	-4030
вшего	-4031
жнему	-4032
явила	-4033
▁алек	-4034
▁атмо	-4035
▁изда	-4036
▁изъя	-4037
▁путе	-4038
▁свер	-4039
▁силы	-4040
▁цеха	-4041
▁этих	-4042
ванием	-4043
ленные	-4044
▁герои	-4045
▁завое	-4046
▁избра	-4047
▁метал	-4048
▁начал	-4049
▁устра	-4050
▁чисто	-4051
▁школе	-4052
▁компро	-4053
▁крайне	-4054
▁кризис	-4055
▁отлича	-4056
▁алексан	-4057
▁времена	-4058
▁градуса	-4059
▁сделали	-4060
▁топливо	-4061
▁началось	-4062
▁объявила	-4063
▁оказался	-4064
▁простран	-4065
▁ресурсов	-4066
▁серьёзных	-4067
▁генеральный	-4068
▁предоставля	-4069
▁региональных	-4070
ешь	-4071
нго	-4072
сем	-4073
сро	-4074
цей	-4075
▁сп	-4076
вшие	-4077
коми	-4078
лина	-4079
меча	-4080
нула	-4081
степ	-4082
▁дер	-4083
▁лит	-4084
▁мед	-4085
грани	-4086
ждено	-4087
кации	-4088
листи	-4089
ставо	-4090
чайно	-4091
▁возь	-4092
▁логи	-4093
▁мона	-4094
▁мяса	-4095
▁роли	-4096
▁фирм	-4097
йского	-4098
▁аркти	-4099
▁масси	-4100
▁молод	-4101
▁напря	-4102
▁осень	-4103
▁ущерб	-4104
▁юбиле	-4105
ровании	-4106
▁аварии	-4107
▁времён	-4108
▁горожа	-4109
▁делают	-4110
▁дефици	-4111
▁многим	-4112
▁объёмы	-4113
▁триста	-4114
▁академи	-4115
▁встречи	-4116
▁выставо	-4117
▁молодые	-4118
▁налогов	-4119
▁недоста	-4120
▁считают	-4121
ственного	-4122
▁болезней	-4123
▁литерату	-4124
▁привести	-4125
▁собрания	-4126
▁института	-4127
▁размещены	-4128
▁рассмотрит	-4129
▁организации	-4130
▁общественных	-4131
▁американского	-4132
▁задолженность	-4133
▁необходимости	-4134
зь	-4135
ант	-4136
бур	-4137
вши	-4138
гно	-4139
ерк	-4140
лед	-4141
неж	-4142
рев	-4143
гают	-4144
жную	-4145
кета	-4146
лами	-4147
леко	-4148
мали	-4149
ничь	-4150
рить	-4151
рудо	-4152
теги	-4153
шена	-4154
▁дно	-4155
▁каз	-4156
▁очи	-4157
▁рее	-4158
выбор	-4159
образ	-4160
резвы	-4161
следо	-4162
▁воду	-4163
▁воск	-4164
▁кров	-4165
▁мужи	-4166
▁наши	-4167
▁ника	-4168
▁посе	-4169
▁похи	-4170
▁слож	-4171
▁шест	-4172
являет	-4173
▁нашем	-4174
▁расхо	-4175
▁сирия	-4176
▁тибет	-4177
ранения	-4178
▁весной	-4179
▁голосо	-4180
▁далеко	-4181
▁мнения	-4182
▁основе	-4183
▁оценке	-4184
▁полном	-4185
▁почерк	-4186
▁претен	-4187
▁сделан	-4188
▁сделок	-4189
▁случаи	-4190
▁соверш	-4191
▁универ	-4192
▁чрезвы	-4193
▁городов	-4194
▁металли	-4195
▁молодых	-4196
▁превыша	-4197
▁проекта	-4198
▁россиян	-4199
▁свободы	-4200
▁акционер	-4201
▁депутаты	-4202
▁достигну	-4203
▁использу	-4204
▁напомина	-4205
▁стратеги	-4206
▁экспорта	-4207
▁буквально	-4208
▁заседания	-4209
▁настоящее	-4210
▁оказаться	-4211
▁предвыбор	-4212
▁сравнению	-4213
▁неожиданно	-4214
▁полномочия	-4215
▁управления	-4216
▁большинства	-4217
▁избирателей	-4218
▁телевидения	-4219
рд	-4220
хе	-4221
бки	-4222
гер	-4223
лай	-4224
рие	-4225
тым	-4226
▁мг	-4227
▁ск	-4228
▁тр	-4229
▁тё	-4230
били	-4231
веща	-4232
ктор	-4233
мани	-4234
слен	-4235
стки	-4236
тные	-4237
хозя	-4238
щных	-4239
▁бро	-4240
▁еги	-4241
▁мел	-4242
▁них	-4243
▁пут	-4244
▁рит	-4245
▁сты	-4246
▁фру	-4247
порта	-4248
скают	-4249
скому	-4250
тисти	-4251
▁апте	-4252
▁века	-4253
▁дети	-4254
▁дово	-4255
▁доме	-4256
▁зару	-4257
▁идео	-4258
▁пара	-4259
▁преж	-4260
▁прио	-4261
▁сами	-4262
▁сети	-4263
▁тело	-4264
▁тонн	-4265
жество	-4266
новили	-4267
▁волны	-4268
▁выгля	-4269
▁глубо	-4270
▁долга	-4271
▁закан	-4272
▁замет	-4273
▁зрели	-4274
▁источ	-4275
▁конца	-4276
▁крепо	-4277
▁наука	-4278
▁нужны	-4279
▁реаги	-4280
▁руках	-4281
▁серти	-4282
▁центр	-4283
ставить	-4284
станции	-4285
ференду	-4286
▁бывших	-4287
▁воздух	-4288
▁звезда	-4289
▁зрения	-4290
▁лабора	-4291
▁лужков	-4292
▁называ	-4293
▁област	-4294
▁первую	-4295
▁поверх	-4296
▁покупа	-4297
▁полной	-4298
▁фильма	-4299
▁владель	-4300
▁высоких	-4301
▁действу	-4302
▁декабре	-4303
▁крупней	-4304
▁медицин	-4305
▁популяр	-4306
▁признал	-4307
▁распоря	-4308
▁солдаты	-4309
▁механизм	-4310
▁рассмотр	-4311
▁статисти	-4312
▁директора	-4313
▁налоговой	-4314
▁произошло	-4315
▁референду	-4316
▁секретарь	-4317
▁инвестиций	-4318
▁иностранных	-4319
▁генерального	-4320
▁администрация	-4321
▁восемнадцатого	-4322
▁дополнительные	-4323
нд	-4324
дия	-4325
емо	-4326
зок	-4327
кер	-4328
кци	-4329
лах	-4330
лая	-4331
мия	-4332
худ	-4333
цах	-4334
▁ог	-4335
▁ёл	-4336
быва	-4337
воль	-4338
гина	-4339
реги	-4340
рома	-4341
служ	-4342
▁жив	-4343
▁кав	-4344
▁лож	-4345
▁шве	-4346
ённых	-4347
▁веще	-4348
▁думу	-4349
▁нака	-4350
▁саха	-4351
▁седь	-4352
▁угля	-4353
▁ухуд	-4354
▁церк	-4355
диться	-4356
ляться	-4357
▁арома	-4358
▁вывод	-4359
▁друго	-4360
▁курса	-4361
▁награ	-4362
▁особо	-4363
▁отчёт	-4364
▁плохо	-4365
▁сопро	-4366
▁устав	-4367
▁борьбы	-4368
▁ветера	-4369
▁второй	-4370
▁входит	-4371
▁выборы	-4372
▁оборот	-4373
▁продаж	-4374
▁телеви	-4375
▁двухсот	-4376
▁негатив	-4377
▁огранич	-4378
▁сборной	-4379
▁большого	-4380
▁началась	-4381
▁проблему	-4382
▁создания	-4383
▁человеку	-4384
▁отношении	-4385
▁повышение	-4386
▁последний	-4387
▁благоприят	-4388
▁переживает	-4389
▁приходится	-4390
▁управление	-4391
▁освобождены	-4392
▁авиакомпании	-4393
▁представлены	-4394
▁насчитывается	-4395
▁постановление	-4396
▁представителей	-4397
вцы	-4398
дко	-4399
лыж	-4400
ним	-4401
оти	-4402
фон	-4403
ёда	-4404
гани	-4405
жают	-4406
нице	-4407
перь	-4408
софо	-4409
тную	-4410
▁вдо	-4411
▁зло	-4412
▁ира	-4413
▁ого	-4414
▁она	-4415
▁тро	-4416
менте	-4417
рядок	-4418
скопа	-4419
тания	-4420
▁воро	-4421
▁духа	-4422
▁забы	-4423
▁зало	-4424
▁запо	-4425
▁клет	-4426
▁мёда	-4427
▁рубе	-4428
▁хими	-4429
▁цене	-4430
ведены	-4431
кновен	-4432
частли	-4433
ющиеся	-4434
▁графи	-4435
▁каждо	-4436
▁касса	-4437
▁ориен	-4438
▁полез	-4439
▁самых	-4440
▁харак	-4441
▁члена	-4442
ффектив	-4443
▁изобра	-4444
▁конвей	-4445
▁масшта	-4446
▁наступ	-4447
▁начало	-4448
▁письма	-4449
▁предше	-4450
▁прежде	-4451
▁путина	-4452
▁ставки	-4453
▁теперь	-4454
▁украин	-4455
▁будущее	-4456
▁имеются	-4457
▁мировой	-4458
▁незакон	-4459
▁порядок	-4460
▁признан	-4461
▁соверши	-4462
▁сталина	-4463
▁счастли	-4464
▁таксофо	-4465
▁задержан	-4466
▁здоровья	-4467
▁массовой	-4468
▁неизвест	-4469
▁несостоя	-4470
▁произвед	-4471
▁самолёта	-4472
▁бюрократи	-4473
▁серьёзная	-4474
▁четыреста	-4475
▁владивосто	-4476
▁неэффектив	-4477
▁предполага	-4478
▁требований	-4479
▁космической	-4480
▁тысячелетия	-4481
▁политические	-4482
▁международным	-4483
▁строительство	-4484
зей	-4485
льп	-4486
мию	-4487
тая	-4488
хие	-4489
енса	-4490
лома	-4491
▁хво	-4492
▁база	-4493
▁безу	-4494
▁долю	-4495
▁доля	-4496
▁ждут	-4497
▁меда	-4498
▁наро	-4499
▁ночь	-4500
▁полё	-4501
▁раск	-4502
▁севе	-4503
▁суво	-4504
▁трое	-4505
пление	-4506
▁вышел	-4507
▁госду	-4508
▁духов	-4509
▁задей	-4510
▁закуп	-4511
▁запол	-4512
▁китай	-4513
▁марки	-4514
▁масла	-4515
▁образ	-4516
▁прима	-4517
▁самый	-4518
▁сказа	-4519
▁союза	-4520
▁сфере	-4521
▁этапе	-4522
тельной	-4523
ционная	-4524
▁верхов	-4525
▁испыты	-4526
▁каждым	-4527
▁керами	-4528
▁плохие	-4529
▁принял	-4530
▁прошла	-4531
▁скульп	-4532
▁станут	-4533
▁тенден	-4534
▁цивили	-4535
ственным	-4536
▁второго	-4537
▁выборах	-4538
▁девушка	-4539
▁корабль	-4540
▁погибли	-4541
▁происше	-4542
▁топлива	-4543
▁германии	-4544
▁паспорта	-4545
▁перемены	-4546
▁состоялось	-4547
луа	-4548
лья	-4549
мма	-4550
нав	-4551
жать	-4552
кома	-4553
мень	-4554
тным	-4555
трел	-4556
жению	-4557
кцией	-4558
яться	-4559
▁ауди	-4560
▁живо	-4561
▁ледо	-4562
▁лета	-4563
▁пога	-4564
▁удар	-4565
женцев	-4566
▁ликви	-4567
▁масса	-4568
▁солне	-4569
▁справ	-4570
▁фонды	-4571
▁языка	-4572
▁автобу	-4573
▁основу	-4574
▁пойдёт	-4575
▁пользу	-4576
▁предус	-4577
▁случаев	-4578
▁событий	-4579
▁сократи	-4580
▁беженцев	-4581
▁космонав	-4582
▁миллиард	-4583
▁открытии	-4584
▁туристов	-4585
▁искусства	-4586
▁ожидается	-4587
▁посвящена	-4588
▁отличается	-4589
▁возможности	-4590
▁журналистов	-4591
▁исследования	-4592
стр	-4593
тря	-4594
защи	-4595
льга	-4596
▁бой	-4597
▁дво	-4598
дного	-4599
нение	-4600
щению	-4601
▁гран	-4602
▁труд	-4603
валось	-4604
▁выход	-4605
▁поезд	-4606
▁проме	-4607
▁спорт	-4608
льность	-4609
▁выступ	-4610
▁гигант	-4611
▁истори	-4612
▁неизмен	-4613
▁патриар	-4614
▁принять	-4615
▁районах	-4616
▁абсолютно	-4617
▁москвичей	-4618
▁последних	-4619
▁спутников	-4620
▁президенты	-4621
▁реализации	-4622
▁финансовых	-4623
▁предложения	-4624
▁законопроект	-4625
гей	-4626
гора	-4627
смен	-4628
стями	-4629
▁введ	-4630
▁заба	-4631
▁зале	-4632
▁поми	-4633
зуется	-4634
▁атлан	-4635
▁двига	-4636
▁звёзд	-4637
▁индия	-4638
▁красо	-4639
▁микро	-4640
▁разли	-4641
▁тепла	-4642
▁космос	-4643
▁ликвид	-4644
▁льготы	-4645
▁потеря	-4646
▁сергей	-4647
тельного	-4648
▁городок	-4649
▁дальней	-4650
▁историю	-4651
▁пустыню	-4652
▁капитала	-4653
▁обеспечи	-4654
▁налоговых	-4655
▁открылась	-4656
▁переработки	-4657
▁относительно	-4658
дце	-4659
лти	-4660
рая	-4661
соф	-4662
▁ок	-4663
лями	-4664
няет	-4665
поте	-4666
тать	-4667
ящий	-4668
▁бло	-4669
▁мра	-4670
▁цех	-4671
ворил	-4672
делки	-4673
платы	-4674
снока	-4675
стили	-4676
шению	-4677
▁валю	-4678
▁дают	-4679
▁отсе	-4680
▁охра	-4681
▁разы	-4682
▁скры	-4683
гности	-4684
нтовки	-4685
▁богат	-4686
▁выпол	-4687
▁дерев	-4688
▁жильё	-4689
▁латин	-4690
▁налог	-4691
▁подня	-4692
▁школь	-4693
▁примет	-4694
▁пункты	-4695
▁сердце	-4696
▁сирией	-4697
▁употре	-4698
▁урожай	-4699
▁близору	-4700
▁бюджету	-4701
▁которая	-4702
▁недавно	-4703
▁решения	-4704
▁уходить	-4705
▁фракций	-4706
▁чеснока	-4707
▁валютных	-4708
казывается	-4709
▁выступает	-4710
▁достаточно	-4711
▁нескольких	-4712
▁расширение	-4713
▁художников	-4714
▁значительный	-4715
▁направлением	-4716
▁радиостанция	-4717
▁международной	-4718
▁собственности	-4719
их	-4720
ёс	-4721
вью	-4722
дры	-4723
дуа	-4724
жье	-4725
каф	-4726
лад	-4727
леп	-4728
ндо	-4729
нём	-4730
риа	-4731
▁ву	-4732
вуча	-4733
вшую	-4734
ково	-4735
нике	-4736
поли	-4737
ходя	-4738
ёнок	-4739
▁зво	-4740
▁кин	-4741
▁нед	-4742
▁рак	-4743
▁там	-4744
▁тём	-4745
видуа	-4746
возмо	-4747
гедии	-4748
ксима	-4749
ктива	-4750
пресс	-4751
скими	-4752
ённый	-4753
▁вспо	-4754
▁евре	-4755
▁запу	-4756
▁кали	-4757
▁ледя	-4758
▁мазу	-4759
▁паки	-4760
▁поса	-4761
▁пуга	-4762
▁шкаф	-4763
виться	-4764
езжают	-4765
нализи	-4766
ступит	-4767
▁вынес	-4768
▁детям	-4769
▁корот	-4770
▁лодки	-4771
▁лондо	-4772
▁обмен	-4773
▁слухи	-4774
▁хирур	-4775
стердам	-4776
▁абонен	-4777
▁авторы	-4778
▁гастро	-4779
▁дорого	-4780
▁жалобу	-4781
▁закону	-4782
▁защиту	-4783
▁купить	-4784
▁минима	-4785
▁москва	-4786
▁неделю	-4787
▁отпуск	-4788
▁пакета	-4789
▁сделал	-4790
▁символ	-4791
▁уверен	-4792
▁экипаж	-4793
ствовала	-4794
▁болезнь	-4795
▁большим	-4796
▁вопроса	-4797
▁зрителя	-4798
▁истории	-4799
▁максима	-4800
▁обязаны	-4801
▁рабочих	-4802
▁разгово	-4803
▁ребёнок	-4804
▁станцию	-4805
▁стрессо	-4806
▁успехом	-4807
▁географи	-4808
▁институт	-4809
▁интервью	-4810
▁концерта	-4811
▁основным	-4812
▁пакистан	-4813
▁половина	-4814
▁получили	-4815
▁поставля	-4816
▁продукты	-4817
▁трагедии	-4818
▁третьего	-4819
▁финансов	-4820
▁амстердам	-4821
▁великолеп	-4822
▁вчерашние	-4823
▁индивидуа	-4824
▁коллекцию	-4825
▁контролем	-4826
▁очередной	-4827
▁проводить	-4828
▁уважением	-4829
▁учитывать	-4830
▁возбуждено	-4831
▁временного	-4832
▁избавиться	-4833
▁напряжения	-4834
▁настроений	-4835
▁результате	-4836
▁завершились	-4837
▁специальных	-4838
▁министерства	-4839
▁предоставлен	-4840
▁председатель	-4841
▁землетрясения	-4842
▁политического	-4843
▁правительством	-4844
▁финансирования	-4845
ут	-4846
взо	-4847
гло	-4848
ете	-4849
жур	-4850
или	-4851
кол	-4852
лян	-4853
мся	-4854
плы	-4855
ппа	-4856
тке	-4857
фов	-4858
чее	-4859
чка	-4860
чую	-4861
бить	-4862
ведо	-4863
вный	-4864
ехал	-4865
кому	-4866
льню	-4867
льши	-4868
отно	-4869
ремо	-4870
тона	-4871
хема	-4872
щает	-4873
▁изы	-4874
▁мне	-4875
▁ово	-4876
▁тай	-4877
▁ужа	-4878
▁шпа	-4879
▁шум	-4880
▁эри	-4881
бания	-4882
близи	-4883
лагба	-4884
нисты	-4885
рести	-4886
троци	-4887
чению	-4888
▁апре	-4889
▁зато	-4890
▁импе	-4891
▁меню	-4892
▁наса	-4893
▁осла	-4894
▁отчу	-4895
▁пони	-4896
▁силь	-4897
▁факу	-4898
▁фило	-4899
▁царь	-4900
▁целе	-4901
валась	-4902
годние	-4903
никает	-4904
чённых	-4905
▁акцен	-4906
▁ведом	-4907
▁держа	-4908
▁зерна	-4909
▁иссле	-4910
▁исчер	-4911
▁корти	-4912
▁мавзо	-4913
▁назна	-4914
▁немцы	-4915
▁перео	-4916
▁подъё	-4917
▁поряд	-4918
▁расчё	-4919
▁стиму	-4920
▁сумма	-4921
▁схема	-4922
▁сцене	-4923
▁темпы	-4924
▁толпа	-4925
▁числе	-4926
водятся	-4927
тельная	-4928
▁атмосф	-4929
▁баланс	-4930
▁вильню	-4931
▁выбора	-4932
▁газеты	-4933
▁замеча	-4934
▁импера	-4935
▁ленина	-4936
▁медлен	-4937
▁недове	-4938
▁неудоб	-4939
▁ничего	-4940
▁объёма	-4941
▁одному	-4942
▁отмеча	-4943
▁понять	-4944
▁правил	-4945
▁пятого	-4946
▁самого	-4947
▁своими	-4948
▁сообще	-4949
▁тарифа	-4950
▁церемо	-4951
▁шлагба	-4952
▁эффект	-4953
▁юбилея	-4954
тические	-4955
▁автотра	-4956
▁ассоциа	-4957
▁вызвано	-4958
▁заканчи	-4959
▁зарубеж	-4960
▁кризиса	-4961
▁критика	-4962
▁лучшего	-4963
▁молодёж	-4964
▁неправи	-4965
▁нервную	-4966
▁обороны	-4967
▁президи	-4968
▁препара	-4969
▁связано	-4970
▁счастья	-4971
▁функций	-4972
▁футболи	-4973
йственные	-4974
▁аэропорт	-4975
▁валютной	-4976
▁валютный	-4977
▁директор	-4978
▁ежегодно	-4979
▁погибших	-4980
▁проходит	-4981
▁регистра	-4982
▁себестои	-4983
▁холодный	-4984
▁эритроци	-4985
петербурга	-4986
▁благодаря	-4987
▁готовятся	-4988
▁действует	-4989
▁дискуссия	-4990
▁колебания	-4991
▁нарушения	-4992
▁поддержку	-4993
▁фестиваля	-4994
▁взаимоотно	-4995
▁операторов	-4996
▁отсутствие	-4997
▁предложили	-4998
▁проведения	-4999
▁социальных	-5000
▁экспозиции	-5001
▁докладчиков	-5002
▁шестнадцати	-5003
▁исследований	-5004
▁восстановления	-5005
▁энергетический	-5006
аф	-5007
ёд	-5008
бый	-5009
вик	-5010
дец	-5011
дру	-5012
жие	-5013
лур	-5014
пел	-5015
ума	-5016
ыду	-5017
вная	-5018
гори	-5019
дены	-5020
дины	-5021
емые	-5022
енье	-5023
кнул	-5024
лыша	-5025
нача	-5026
рама	-5027
ртии	-5028
скор	-5029
стых	-5030
хаил	-5031
чины	-5032
чное	-5033
ьере	-5034
ющая	-5035
▁аре	-5036
▁брю	-5037
▁гар	-5038
▁дуэ	-5039
▁мыш	-5040
▁пад	-5041
▁ссы	-5042
▁тот	-5043
▁фре	-5044
герях	-5045
ничто	-5046
очере	-5047
ревно	-5048
ровок	-5049
терна	-5050
тятся	-5051
фикси	-5052
шисты	-5053
ялись	-5054
ённые	-5055
▁выде	-5056
▁дефе	-5057
▁идею	-5058
▁испа	-5059
▁кате	-5060
▁любу	-5061
▁моди	-5062
▁нашу	-5063
▁сухо	-5064
▁тому	-5065
▁указ	-5066
▁фона	-5067
▁южно	-5068
бление	-5069
вероят	-5070
держит	-5071
льному	-5072
наторы	-5073
ходили	-5074
числен	-5075
▁бирже	-5076
▁вклад	-5077
▁всему	-5078
▁главы	-5079
▁клуба	-5080
▁лодка	-5081
▁любят	-5082
▁мошен	-5083
▁носит	-5084
▁откло	-5085
▁перво	-5086
▁плате	-5087
▁покуп	-5088
▁попро	-5089
▁пушки	-5090
▁район	-5091
▁сборо	-5092
▁соеди	-5093
▁театр	-5094
▁турне	-5095
▁упала	-5096
▁фондо	-5097
▁хлеба	-5098
▁часам	-5099
ствовал	-5100
черкнул	-5101
▁аресто	-5102
▁африке	-5103
▁вперёд	-5104
▁заказы	-5105
▁закреп	-5106
▁защите	-5107
▁кремля	-5108
▁михаил	-5109
▁мнению	-5110
▁налога	-5111
▁написа	-5112
▁новому	-5113
▁опусти	-5114
▁особый	-5115
▁перено	-5116
▁перспе	-5117
▁победу	-5118
▁помочь	-5119
▁постеп	-5120
▁своему	-5121
▁секрет	-5122
▁старто	-5123
▁страна	-5124
▁съезда	-5125
▁тысяча	-5126
▁уничто	-5127
▁швеции	-5128
прежнему	-5129
чиваться	-5130
▁воскрес	-5131
▁горожан	-5132
▁детских	-5133
▁застави	-5134
▁зафикси	-5135
▁исполни	-5136
▁концерн	-5137
▁культур	-5138
▁курение	-5139
▁лагерях	-5140
▁монасты	-5141
▁мужчины	-5142
▁передви	-5143
▁постоян	-5144
▁предыду	-5145
▁системе	-5146
▁систему	-5147
▁соревно	-5148
▁среднем	-5149
▁требует	-5150
▁трёхсот	-5151
▁хочется	-5152
▁энергию	-5153
граничных	-5154
мировании	-5155
начальный	-5156
стрирован	-5157
▁автомати	-5158
▁газпрома	-5159
▁довольно	-5160
▁договора	-5161
▁занимает	-5162
▁категори	-5163
▁лидерами	-5164
▁металлур	-5165
▁модифика	-5166
▁невероят	-5167
▁обстанов	-5168
▁ознакоми	-5169
▁товарной	-5170
▁городских	-5171
▁демонстра	-5172
▁должность	-5173
▁заявление	-5174
▁компартии	-5175
▁котировок	-5176
▁нижегород	-5177
▁посвящено	-5178
▁продукция	-5179
▁следующей	-5180
▁средством	-5181
▁тенденция	-5182
▁экономика	-5183
▁автомобиль	-5184
▁коммунисти	-5185
▁определена	-5186
▁подчеркнул	-5187
▁постепенно	-5188
▁приглашены	-5189
▁губернаторы	-5190
▁расположены	-5191
▁председателя	-5192
▁преступлений	-5193
▁приграничных	-5194
▁продолжается	-5195
▁соответствии	-5196
▁обязательства	-5197
▁отечественной	-5198
▁пользователей	-5199
ео	-5200
из	-5201
вам	-5202
вар	-5203
гна	-5204
жах	-5205
зни	-5206
йор	-5207
кат	-5208
мно	-5209
сми	-5210
тят	-5211
цом	-5212
щик	-5213
язы	-5214
▁оз	-5215
▁ум	-5216
бири	-5217
года	-5218
грал	-5219
дови	-5220
лета	-5221
неса	-5222
нное	-5223
нспо	-5224
пере	-5225
рета	-5226
▁азо	-5227
▁блю	-5228
▁ель	-5229
▁нью	-5230
▁оки	-5231
▁рам	-5232
▁рим	-5233
▁смы	-5234
▁сом	-5235
▁чай	-5236
▁шпи	-5237
дился	-5238
ездки	-5239
етьми	-5240
лочек	-5241
носит	-5242
рвано	-5243
тации	-5244
▁беру	-5245
▁вста	-5246
▁гиро	-5247
▁гроб	-5248
▁зате	-5249
▁идея	-5250
▁колу	-5251
▁нами	-5252
▁нево	-5253
▁обма	-5254
▁особ	-5255
▁оспы	-5256
▁поле	-5257
▁прон	-5258
▁сена	-5259
▁сказ	-5260
▁сосу	-5261
▁типа	-5262
▁труб	-5263
зывают	-5264
новить	-5265
рованы	-5266
скники	-5267
ствием	-5268
тности	-5269
товить	-5270
точной	-5271
чились	-5272
▁банди	-5273
▁ведёт	-5274
▁вексе	-5275
▁ветер	-5276
▁исклю	-5277
▁какое	-5278
▁концу	-5279
▁корни	-5280
▁ленин	-5281
▁льгот	-5282
▁манеж	-5283
▁метео	-5284
▁музея	-5285
▁нанес	-5286
▁норве	-5287
▁одном	-5288
▁опять	-5289
▁остро	-5290
▁подхо	-5291
▁поста	-5292
▁проте	-5293
▁прямо	-5294
▁рассе	-5295
▁ремон	-5296
▁столо	-5297
▁стоял	-5298
▁транс	-5299
▁форму	-5300
▁четыр	-5301
вальных	-5302
лениями	-5303
нспорта	-5304
скохозя	-5305
хнологи	-5306
▁бывают	-5307
▁варико	-5308
▁вообще	-5309
▁детьми	-5310
▁ельцин	-5311
▁здание	-5312
▁медици	-5313
▁меньше	-5314
▁месяца	-5315
▁небыва	-5316
▁неделе	-5317
▁падает	-5318
▁пришло	-5319
▁прогно	-5320
▁священ	-5321
▁сейсми	-5322
▁семина	-5323
▁сибири	-5324
▁ставка	-5325
▁старая	-5326
▁старой	-5327
▁стрель	-5328
▁учёных	-5329
▁церкви	-5330
конферен	-5331
льностью	-5332
▁бизнеса	-5333
▁большую	-5334
▁выборам	-5335
▁девушки	-5336
▁десятки	-5337
▁драмати	-5338
▁замести	-5339
▁лечения	-5340
▁мужчина	-5341
▁однажды	-5342
▁оружием	-5343
▁отметку	-5344
▁позиция	-5345
▁приняли	-5346
▁религии	-5347
▁рыбаков	-5348
▁текущем	-5349
▁формами	-5350
▁экспорт	-5351
▁быстрого	-5352
▁квартире	-5353
▁контроли	-5354
▁которого	-5355
▁магазина	-5356
▁организм	-5357
▁освоения	-5358
▁половину	-5359
▁прервано	-5360
▁русского	-5361
▁составит	-5362
▁тепловых	-5363
▁филиалов	-5364
▁эффектив	-5365
▁комплексе	-5366
▁неизбежен	-5367
▁обвинения	-5368
▁оказалось	-5369
▁отношение	-5370
▁сертифика	-5371
▁утверждён	-5372
жительность	-5373
▁бизнесмены	-5374
▁выпускники	-5375
▁действиями	-5376
▁долголетия	-5377
▁катастрофе	-5378
▁междугород	-5379
▁наибольшие	-5380
▁определять	-5381
▁сотрудники	-5382
▁кандидатуру	-5383
▁конкурсного	-5384
▁официальным	-5385
▁официальных	-5386
▁президентом	-5387
▁сельскохозя	-5388
▁владивостока	-5389
▁восстановить	-5390
▁потребителям	-5391
▁продолжаются	-5392
▁сегодняшнего	-5393
▁четырнадцать	-5394
▁экономических	-5395
лец	-5396
лит	-5397
лот	-5398
рее	-5399
рей	-5400
сил	-5401
ьет	-5402
анты	-5403
дина	-5404
емое	-5405
емой	-5406
нены	-5407
оном	-5408
рост	-5409
сить	-5410
стёт	-5411
хими	-5412
▁бре	-5413
▁зал	-5414
▁лыж	-5415
▁май	-5416
▁ним	-5417
▁тан	-5418
▁уве	-5419
▁уче	-5420
▁хва	-5421
вейца	-5422
вился	-5423
жащих	-5424
йство	-5425
нутся	-5426
тация	-5427
чиком	-5428
ьетна	-5429
ющими	-5430
▁актё	-5431
▁вида	-5432
▁идеи	-5433
▁изоб	-5434
▁касс	-5435
▁коло	-5436
▁кому	-5437
▁креп	-5438
▁купю	-5439
▁матч	-5440
▁мэра	-5441
▁обру	-5442
▁отца	-5443
▁поля	-5444
▁разо	-5445
▁речи	-5446
▁сере	-5447
▁ёлку	-5448
ротвор	-5449
страда	-5450
строен	-5451
тивных	-5452
шением	-5453
▁брази	-5454
▁войну	-5455
▁выска	-5456
▁живёт	-5457
▁заяви	-5458
▁кадро	-5459
▁карна	-5460
▁книгу	-5461
▁корпу	-5462
▁марте	-5463
▁нераз	-5464
▁отвер	-5465
▁парус	-5466
▁приго	-5467
▁путём	-5468
▁росту	-5469
▁снова	-5470
▁сопер	-5471
▁трудо	-5472
▁укреп	-5473
▁хакер	-5474
кологии	-5475
ступают	-5476
чивости	-5477
▁валюты	-5478
▁водола	-5479
▁вьетна	-5480
▁данных	-5481
▁ежегод	-5482
▁житель	-5483
▁закрыт	-5484
▁модель	-5485
▁наполе	-5486
▁оконча	-5487
▁окружа	-5488
▁препят	-5489
▁пришли	-5490
▁провин	-5491
▁растёт	-5492
▁резкие	-5493
▁реклам	-5494
▁служит	-5495
▁стихий	-5496
▁тюрьмы	-5497
▁швейца	-5498
хождение	-5499
▁биологи	-5500
▁болезни	-5501
▁бюджета	-5502
▁вертолё	-5503
▁выросли	-5504
▁генерал	-5505
▁годовой	-5506
▁договор	-5507
▁женщины	-5508
▁запасов	-5509
▁конвейе	-5510
▁меньшей	-5511
▁нормати	-5512
▁оригина	-5513
▁ориенти	-5514
▁платить	-5515
▁попытка	-5516
▁рекламы	-5517
▁экипажа	-5518
тельности	-5519
▁белорусс	-5520
▁владелец	-5521
▁высокого	-5522
▁денежные	-5523
▁искусств	-5524
▁компенса	-5525
▁миротвор	-5526
▁намерены	-5527
▁небольшо	-5528
▁основная	-5529
▁пострада	-5530
▁поступил	-5531
▁появятся	-5532
▁резервов	-5533
▁россияне	-5534
▁ситуацию	-5535
▁созданию	-5536
▁спутники	-5537
▁ветеранов	-5538
▁восприяти	-5539
▁маршрутов	-5540
▁опасности	-5541
▁организма	-5542
▁перевозок	-5543
▁получения	-5544
▁располага	-5545
▁республик	-5546
▁скульптур	-5547
▁уголовное	-5548
▁встретился	-5549
▁государств	-5550
▁губернатор	-5551
▁обнаружены	-5552
▁поддержать	-5553
▁предлагает	-5554
▁российская	-5555
▁сформирова	-5556
▁таксофонов	-5557
▁гражданской	-5558
▁европейский	-5559
▁обеспечении	-5560
▁отправились	-5561
▁переходного	-5562
▁законодатель	-5563
▁руководители	-5564
▁месторождения	-5565
▁строительства	-5566
ую	-5567
чо	-5568
гом	-5569
кза	-5570
лле	-5571
нта	-5572
нён	-5573
сок	-5574
щён	-5575
атре	-5576
вига	-5577
дним	-5578
дном	-5579
меры	-5580
пети	-5581
раль	-5582
роде	-5583
стая	-5584
теле	-5585
▁уси	-5586
▁хру	-5587
▁шти	-5588
биоти	-5589
водят	-5590
жутся	-5591
ковых	-5592
лится	-5593
▁адво	-5594
▁голу	-5595
▁дали	-5596
▁замы	-5597
▁копи	-5598
▁марс	-5599
▁миру	-5600
▁опто	-5601
▁парк	-5602
▁сото	-5603
▁цену	-5604
ждении	-5605
калами	-5606
кторов	-5607
лейтен	-5608
летнюю	-5609
таркти	-5610
тность	-5611
ченной	-5612
▁акция	-5613
▁вдоль	-5614
▁вокза	-5615
▁вырос	-5616
▁голан	-5617
▁инсти	-5618
▁комит	-5619
▁круги	-5620
▁масел	-5621
▁мгнов	-5622
▁непре	-5623
▁предъ	-5624
▁прибо	-5625
▁тогда	-5626
ложение	-5627
ротстве	-5628
ённость	-5629
▁аппара	-5630
▁выбира	-5631
▁гибкий	-5632
▁доходы	-5633
▁европы	-5634
▁итогам	-5635
▁конвер	-5636
▁курсан	-5637
▁лучший	-5638
▁минуты	-5639
▁образу	-5640
▁первом	-5641
▁развед	-5642
▁разных	-5643
▁репети	-5644
▁сессии	-5645
▁совеща	-5646
действие	-5647
▁бактери	-5648
▁больших	-5649
▁ведущие	-5650
▁выслуша	-5651
▁главной	-5652
▁главных	-5653
▁индекса	-5654
▁лечение	-5655
▁масштаб	-5656
▁научных	-5657
▁номеров	-5658
▁полторы	-5659
▁попытки	-5660
▁прошлое	-5661
▁пятьсот	-5662
▁свободу	-5663
▁символы	-5664
▁средняя	-5665
▁странах	-5666
▁считать	-5667
▁частных	-5668
▁антаркти	-5669
▁выставке	-5670
▁выступит	-5671
▁намерена	-5672
▁объектом	-5673
▁операция	-5674
▁основном	-5675
▁пенсионе	-5676
▁проведёт	-5677
▁религиоз	-5678
▁антибиоти	-5679
▁говорится	-5680
▁городской	-5681
▁заседании	-5682
▁известные	-5683
▁мгновенно	-5684
▁самолётов	-5685
▁территори	-5686
▁выдавались	-5687
▁литература	-5688
▁отправится	-5689
▁российском	-5690
▁состоялась	-5691
▁банкротстве	-5692
▁московского	-5693
▁необыкновен	-5694
▁предшествен	-5695
▁противостоя	-5696
▁распростран	-5697
▁американской	-5698
▁кассационная	-5699
▁представлена	-5700
▁собственность	-5701
▁предполагается	-5702
бай	-5703
бар	-5704
бри	-5705
век	-5706
где	-5707
дит	-5708
рыв	-5709
хто	-5710
чая	-5711
чув	-5712
▁щи	-5713
бере	-5714
гией	-5715
доро	-5716
езде	-5717
емый	-5718
плуа	-5719
сный	-5720
стка	-5721
▁вжи	-5722
▁дис	-5723
▁моз	-5724
▁ней	-5725
▁съе	-5726
▁сын	-5727
▁эко	-5728
дника	-5729
проду	-5730
сибир	-5731
тного	-5732
циони	-5733
▁внес	-5734
▁вряд	-5735
▁допу	-5736
▁игре	-5737
▁клуб	-5738
▁поня	-5739
▁сент	-5740
▁хоте	-5741
ватели	-5742
льника	-5743
мотрел	-5744
правок	-5745
▁абсур	-5746
▁армию	-5747
▁бакте	-5748
▁каких	-5749
▁посол	-5750
▁проби	-5751
▁сбере	-5752
▁свето	-5753
▁сетей	-5754
▁умень	-5755
▁чубай	-5756
ционные	-5757
▁добычи	-5758
▁концеп	-5759
▁партий	-5760
▁первых	-5761
▁повтор	-5762
▁радика	-5763
▁решило	-5764
▁самыми	-5765
▁санато	-5766
▁транса	-5767
▁японии	-5768
▁главным	-5769
▁капитал	-5770
▁которое	-5771
▁несчаст	-5772
▁обуслов	-5773
▁объекты	-5774
▁органов	-5775
▁поездку	-5776
▁справки	-5777
▁экологи	-5778
▁эксплуа	-5779
▁возможно	-5780
▁легендар	-5781
▁начнётся	-5782
▁двигателя	-5783
▁известных	-5784
▁музыканты	-5785
▁откроется	-5786
▁программе	-5787
▁продукцию	-5788
▁советских	-5789
▁стоимости	-5790
ционировать	-5791
▁вкладчиков	-5792
▁отсутствия	-5793
▁экономической	-5794
фу	-5795
тию	-5796
вшей	-5797
ними	-5798
риев	-5799
ртов	-5800
тила	-5801
тует	-5802
▁выи	-5803
магни	-5804
несли	-5805
▁ближ	-5806
▁знак	-5807
▁мето	-5808
▁наря	-5809
▁сним	-5810
▁фито	-5811
дающий	-5812
ратуры	-5813
▁важно	-5814
▁гамма	-5815
▁зерно	-5816
▁нашли	-5817
▁оцени	-5818
▁пожар	-5819
▁австра	-5820
▁кремль	-5821
▁отправ	-5822
▁положи	-5823
▁полёта	-5824
▁привёл	-5825
▁такого	-5826
хождения	-5827
▁антиква	-5828
▁атланти	-5829
▁извести	-5830
▁ликвиди	-5831
▁получит	-5832
▁пунктов	-5833
▁холодом	-5834
▁выступил	-5835
▁документ	-5836
▁конкурен	-5837
▁конкурса	-5838
▁означает	-5839
▁остаются	-5840
▁памятник	-5841
▁патриарх	-5842
▁принятия	-5843
▁развитию	-5844
▁стартует	-5845
▁странами	-5846
▁углерода	-5847
▁инспекции	-5848
▁некоторым	-5849
▁паспортов	-5850
▁последнее	-5851
▁процедуры	-5852
▁страховых	-5853
формировать	-5854
▁демократия	-5855
▁московская	-5856
▁нападающий	-5857
▁необходимы	-5858
▁подготовка	-5859
▁телефонная	-5860
▁потребление	-5861
▁происшествия	-5862
▁петербургских	-5863
▁промышленности	-5864
▁конституционный	-5865
сх	-5866
запа	-5867
ссов	-5868
ющем	-5869
вании	-5870
комму	-5871
▁края	-5872
терапи	-5873
▁двумя	-5874
▁страх	-5875
▁аварий	-5876
▁долгов	-5877
▁издели	-5878
▁партнё	-5879
▁перебо	-5880
▁посоль	-5881
тоспособ	-5882
▁визитом	-5883
▁впервые	-5884
▁годовых	-5885
▁предста	-5886
▁александ	-5887
▁интересы	-5888
▁лекарств	-5889
▁организо	-5890
▁спортсмен	-5891
▁декларацию	-5892
▁проведении	-5893
▁происходит	-5894
▁существуют	-5895
▁выступления	-5896
▁американская	-5897
мотр	-5898
ноты	-5899
▁дуб	-5900
служи	-5901
▁этап	-5902
▁гимна	-5903
▁кампа	-5904
▁писто	-5905
▁карточ	-5906
▁партию	-5907
▁частью	-5908
▁атомной	-5909
▁обслужи	-5910
▁сборник	-5911
▁переселенца	-5912
▁американские	-5913
▁вынужденного	-5914
мб	-5915
фю	-5916
баш	-5917
луч	-5918
под	-5919
пом	-5920
стю	-5921
сфа	-5922
ыпа	-5923
▁ув	-5924
гими	-5925
дарт	-5926
зуры	-5927
ллет	-5928
режи	-5929
рёст	-5930
снок	-5931
стам	-5932
трях	-5933
▁бен	-5934
▁изо	-5935
▁мер	-5936
виков	-5937
гмати	-5938
дится	-5939
ляция	-5940
метра	-5941
ровые	-5942
щиеся	-5943
яются	-5944
▁выжи	-5945
▁купа	-5946
▁приз	-5947
▁сапо	-5948
▁сырь	-5949
▁типо	-5950
▁улуч	-5951
▁фору	-5952
лается	-5953
родный	-5954
▁биржи	-5955
▁досро	-5956
▁имуще	-5957
▁костю	-5958
▁мороз	-5959
▁ольга	-5960
▁парфю	-5961
▁развя	-5962
▁толпе	-5963
лизации	-5964
ллетени	-5965
▁возрос	-5966
▁вытрях	-5967
▁кулина	-5968
▁легенд	-5969
▁любому	-5970
▁осозна	-5971
▁рейсах	-5972
▁стекла	-5973
▁тысячу	-5974
▁ухудши	-5975
▁чеснок	-5976
режиссёр	-5977
рировать	-5978
ровались	-5979
ставляет	-5980
▁верхняя	-5981
▁высокие	-5982
▁другими	-5983
▁жителям	-5984
▁получат	-5985
▁ставить	-5986
▁хорошим	-5987
▁цензуры	-5988
▁активное	-5989
▁введении	-5990
▁интереса	-5991
▁конфликт	-5992
▁массовых	-5993
▁материал	-5994
▁стандарт	-5995
▁бюллетени	-5996
▁катастроф	-5997
▁положение	-5998
▁ссылается	-5999
▁суперкомп	-6000
▁типографи	-6001
▁украшения	-6002
▁чеченской	-6003
▁вытряхнули	-6004
▁новогодних	-6005
▁пенсионеры	-6006
▁центробанк	-6007
▁выставочном	-6008
▁центральном	-6009
▁глобализации	-6010
▁кинорежиссёр	-6011
▁организаторы	-6012
▁материальными	-6013
▁рассматривает	-6014
▁стратегического	-6015
нт	-6016
щь	-6017
▁р	-6018
бус	-6019
два	-6020
жки	-6021
зем	-6022
зки	-6023
зме	-6024
ллю	-6025
мёт	-6026
нат	-6027
пит	-6028
пру	-6029
рат	-6030
рёл	-6031
сет	-6032
ссу	-6033
хну	-6034
бета	-6035
воза	-6036
едет	-6037
един	-6038
зоти	-6039
кать	-6040
логе	-6041
лота	-6042
льна	-6043
мета	-6044
мога	-6045
нило	-6046
нуне	-6047
нуют	-6048
нчик	-6049
рому	-6050
сках	-6051
стма	-6052
тиве	-6053
тимо	-6054
чему	-6055
▁бор	-6056
▁вам	-6057
▁вед	-6058
▁дум	-6059
▁зар	-6060
▁кле	-6061
▁лин	-6062
ениях	-6063
жилые	-6064
зовцы	-6065
ложил	-6066
рился	-6067
ёткой	-6068
▁бава	-6069
▁бала	-6070
▁бель	-6071
▁бесе	-6072
▁веке	-6073
▁вещь	-6074
▁выру	-6075
▁зубы	-6076
▁иллю	-6077
▁лест	-6078
▁лири	-6079
▁моде	-6080
▁мощь	-6081
▁орке	-6082
▁оспа	-6083
▁пить	-6084
▁плот	-6085
▁радо	-6086
▁реша	-6087
▁скор	-6088
▁съём	-6089
▁тебя	-6090
▁фара	-6091
▁элит	-6092
вшуюся	-6093
лились	-6094
немент	-6095
нулась	-6096
чались	-6097
▁актри	-6098
▁альпи	-6099
▁арене	-6100
▁балти	-6101
▁белый	-6102
▁возле	-6103
▁волна	-6104
▁гарри	-6105
▁глаза	-6106
▁годам	-6107
▁давно	-6108
▁дежур	-6109
▁дикто	-6110
▁замен	-6111
▁засия	-6112
▁капсу	-6113
▁крыша	-6114
▁монго	-6115
▁общую	-6116
▁плака	-6117
▁прино	-6118
▁расса	-6119
▁супру	-6120
▁унижа	-6121
▁фонда	-6122
▁ходят	-6123
▁хочет	-6124
▁целях	-6125
▁языку	-6126
ктивная	-6127
назовцы	-6128
петских	-6129
торской	-6130
▁валюте	-6131
▁вымира	-6132
▁доступ	-6133
▁европу	-6134
▁запрос	-6135
▁запуск	-6136
▁застоя	-6137
▁зрение	-6138
▁канику	-6139
▁кортик	-6140
▁лёгких	-6141
▁мартов	-6142
▁наверх	-6143
▁начать	-6144
▁низкий	-6145
▁отдать	-6146
▁отстра	-6147
▁подзем	-6148
▁почему	-6149
▁прессы	-6150
▁ракеты	-6151
▁резкий	-6152
▁сроком	-6153
▁стреми	-6154
▁судьбе	-6155
▁убыточ	-6156
▁уходит	-6157
▁физики	-6158
▁экзоти	-6159
возможно	-6160
▁близких	-6161
▁великий	-6162
▁возьмёт	-6163
▁вступит	-6164
▁выгодно	-6165
▁гадания	-6166
▁диабета	-6167
▁дорогах	-6168
▁женщина	-6169
▁каждому	-6170
▁кислоты	-6171
▁констру	-6172
▁останки	-6173
▁перечис	-6174
▁перешёл	-6175
▁пожилые	-6176
▁позднее	-6177
▁резерва	-6178
▁решении	-6179
▁сильной	-6180
▁философ	-6181
стройства	-6182
▁арабские	-6183
▁болельщи	-6184
▁больницы	-6185
▁визитной	-6186
▁гастроли	-6187
▁давления	-6188
▁желающий	-6189
▁зарплаты	-6190
▁защитить	-6191
▁израилем	-6192
▁источник	-6193
▁каталоге	-6194
▁накануне	-6195
▁огромную	-6196
▁оркестра	-6197
▁отклонил	-6198
▁подходят	-6199
▁приобрёл	-6200
▁процессе	-6201
▁решёткой	-6202
▁северной	-6203
▁седьмого	-6204
▁снизился	-6205
▁фараонов	-6206
▁хранения	-6207
▁диагности	-6208
▁контракта	-6209
▁ликвидные	-6210
▁настроены	-6211
▁нынешнего	-6212
▁организме	-6213
▁отказался	-6214
▁перевозки	-6215
▁подорожал	-6216
▁природных	-6217
▁прокуроры	-6218
▁столичных	-6219
▁школьники	-6220
▁египетских	-6221
▁законности	-6222
▁инициативе	-6223
▁используют	-6224
▁литературе	-6225
▁невозможно	-6226
▁оставались	-6227
▁повысились	-6228
▁предложить	-6229
▁российское	-6230
▁устройства	-6231
▁финансовые	-6232
нализировали	-6233
▁губернатору	-6234
▁котирования	-6235
▁мартовского	-6236
▁многочислен	-6237
▁обвиняемого	-6238
▁спецназовцы	-6239
▁уничтожения	-6240
▁близорукости	-6241
▁определяется	-6242
▁поставляться	-6243
▁рассчитывать	-6244
▁стремительно	-6245
▁существующих	-6246
▁центрального	-6247
▁месторождений	-6248
▁президентских	-6249
▁конструктивная	-6250
▁свидетельствуют	-6251
вр	-6252
дн	-6253
вол	-6254
все	-6255
дка	-6256
дём	-6257
зун	-6258
йте	-6259
ктр	-6260
нев	-6261
пле	-6262
пор	-6263
рил	-6264
рку	-6265
тви	-6266
цов	-6267
чок	-6268
шеб	-6269
бами	-6270
вари	-6271
годи	-6272
горе	-6273
гуля	-6274
девр	-6275
диль	-6276
длов	-6277
дник	-6278
енит	-6279
ждая	-6280
жела	-6281
зное	-6282
иска	-6283
кани	-6284
кера	-6285
куро	-6286
ланы	-6287
мбле	-6288
номи	-6289
ност	-6290
пону	-6291
риен	-6292
рили	-6293
ртуо	-6294
рудн	-6295
рьем	-6296
ссию	-6297
стят	-6298
твор	-6299
цкая	-6300
щины	-6301
ьево	-6302
ьесы	-6303
ясни	-6304
▁бит	-6305
▁бою	-6306
▁впе	-6307
▁вру	-6308
▁гли	-6309
▁жда	-6310
▁иль	-6311
▁коп	-6312
▁люк	-6313
▁мае	-6314
▁мог	-6315
▁оче	-6316
▁пля	-6317
▁пун	-6318
▁сег	-6319
▁сжи	-6320
бомет	-6321
везёт	-6322
вещен	-6323
делку	-6324
демон	-6325
диров	-6326
енные	-6327
звуча	-6328
ковой	-6329
ковый	-6330
ксики	-6331
метил	-6332
нется	-6333
нимут	-6334
плохо	-6335
режье	-6336
ректи	-6337
ремет	-6338
ротом	-6339
рские	-6340
соеди	-6341
ставе	-6342
стрен	-6343
стром	-6344
чника	-6345
чёвой	-6346
шевле	-6347
щаяся	-6348
▁асса	-6349
▁беда	-6350
▁буря	-6351
▁вещи	-6352
▁вице	-6353
▁вода	-6354
▁воде	-6355
▁вред	-6356
▁горь	-6357
▁дета	-6358
▁есте	-6359
▁жалу	-6360
▁желу	-6361
▁жене	-6362
▁зоне	-6363
▁изма	-6364
▁лати	-6365
▁лень	-6366
▁мало	-6367
▁мемо	-6368
▁меры	-6369
▁ноль	-6370
▁нрав	-6371
▁пива	-6372
▁плён	-6373
▁пнев	-6374
▁пого	-6375
▁реже	-6376
▁реор	-6377
▁свед	-6378
▁скло	-6379
▁соло	-6380
▁стол	-6381
▁темп	-6382
▁тоже	-6383
▁толч	-6384
▁тяго	-6385
▁увле	-6386
▁фото	-6387
▁чист	-6388
▁юсти	-6389
▁ядер	-6390
блении	-6391
борудо	-6392
видеть	-6393
жеской	-6394
комбан	-6395
монтов	-6396
мыслен	-6397
нимает	-6398
нимали	-6399
ротная	-6400
ситета	-6401
тарной	-6402
ченные	-6403
чиками	-6404
читься	-6405
шались	-6406
щались	-6407
▁аэроф	-6408
▁басту	-6409
▁бумаг	-6410
▁взяли	-6411
▁видят	-6412
▁внуши	-6413
▁вовсе	-6414
▁вслед	-6415
▁гормо	-6416
▁дисло	-6417
▁добро	-6418
▁другу	-6419
▁звони	-6420
▁итоги	-6421
▁каким	-6422
▁кинжа	-6423
▁корея	-6424
▁кукол	-6425
▁латви	-6426
▁лодку	-6427
▁лозун	-6428
▁массы	-6429
▁нарко	-6430
▁носят	-6431
▁нужен	-6432
▁обеих	-6433
▁общей	-6434
▁овощи	-6435
▁огнём	-6436
▁оперы	-6437
▁палом	-6438
▁парке	-6439
▁песня	-6440
▁плаву	-6441
▁полом	-6442
▁посёл	-6443
▁привя	-6444
▁причу	-6445
▁пьесы	-6446
▁росли	-6447
▁сайте	-6448
▁семьи	-6449
▁служб	-6450
▁смело	-6451
▁снаря	-6452
▁снега	-6453
▁снять	-6454
▁сотых	-6455
▁стиле	-6456
▁столь	-6457
▁субма	-6458
▁суста	-6459
▁техно	-6460
▁ткани	-6461
▁учёта	-6462
▁фикси	-6463
▁фильм	-6464
▁черно	-6465
▁шампа	-6466
вшегося	-6467
ководец	-6468
логораз	-6469
прокуро	-6470
станцию	-6471
страсти	-6472
ступить	-6473
ционное	-6474
▁авиали	-6475
▁автоза	-6476
▁апреля	-6477
▁банках	-6478
▁бедные	-6479
▁близка	-6480
▁вблизи	-6481
▁виртуо	-6482
▁волшеб	-6483
▁впечат	-6484
▁гимном	-6485
▁гипоте	-6486
▁глинки	-6487
▁горных	-6488
▁дерево	-6489
▁достой	-6490
▁жалоба	-6491
▁каждая	-6492
▁концов	-6493
▁красно	-6494
▁криста	-6495
▁купону	-6496
▁лучших	-6497
▁машина	-6498
▁машину	-6499
▁медики	-6500
▁месяцы	-6501
▁митинг	-6502
▁мужики	-6503
▁музыки	-6504
▁музыку	-6505
▁низкие	-6506
▁новыми	-6507
▁общежи	-6508
▁органы	-6509
▁осенью	-6510
▁оценки	-6511
▁очевид	-6512
▁пенсия	-6513
▁перифе	-6514
▁полков	-6515
▁появля	-6516
▁присту	-6517
▁прогре	-6518
▁пронзи	-6519
▁путеше	-6520
▁регуля	-6521
▁сезона	-6522
▁скачок	-6523
▁служба	-6524
▁смерти	-6525
▁соиска	-6526
▁спектр	-6527
▁стадии	-6528
▁старых	-6529
▁судьбу	-6530
▁товари	-6531
▁товары	-6532
▁третий	-6533
▁улицах	-6534
▁шедевр	-6535
бометров	-6536
ведочных	-6537
давались	-6538
дловской	-6539
тивление	-6540
тический	-6541
▁болезня	-6542
▁больным	-6543
▁вызвать	-6544
▁годовое	-6545
▁детский	-6546
▁дешевле	-6547
▁другому	-6548
▁закупку	-6549
▁затрудн	-6550
▁золотые	-6551
▁зрелище	-6552
▁издания	-6553
▁исчерпа	-6554
▁калифор	-6555
▁лидеров	-6556
▁мечтают	-6557
▁морские	-6558
▁надежды	-6559
▁насажда	-6560
▁наступи	-6561
▁неплохо	-6562
▁неприят	-6563
▁ожидать	-6564
▁опасной	-6565
▁открыть	-6566
▁отметил	-6567
▁перекры	-6568
▁позицию	-6569
▁полевых	-6570
▁получен	-6571
▁порядка	-6572
▁приорит	-6573
▁причина	-6574
▁продукт	-6575
▁процент	-6576
▁разгоре	-6577
▁разрабо	-6578
▁районов	-6579
▁россией	-6580
▁самолёт	-6581
▁свобода	-6582
▁сектору	-6583
▁сильным	-6584
▁снежную	-6585
▁снимали	-6586
▁созданы	-6587
▁составе	-6588
▁средней	-6589
▁столицу	-6590
▁тревоги	-6591
▁увидеть	-6592
▁участки	-6593
▁хирурги	-6594
▁холдинг	-6595
▁хорошие	-6596
▁цветной	-6597
▁шеремет	-6598
▁экстрен	-6599
▁юстиции	-6600
ганизации	-6601
граничные	-6602
демонстри	-6603
▁альтерна	-6604
▁ассамбле	-6605
▁вертолёт	-6606
▁винтовки	-6607
▁вспомина	-6608
▁выработа	-6609
▁деньгами	-6610
▁жалуются	-6611
▁жидкости	-6612
▁журналов	-6613
▁западных	-6614
▁защищать	-6615
▁инкомбан	-6616
▁качество	-6617
▁контракт	-6618
▁кредитов	-6619
▁медленно	-6620
▁начинает	-6621
▁объектов	-6622
▁поднимут	-6623
▁подписан	-6624
▁принципе	-6625
▁прироста	-6626
▁присоеди	-6627
▁распозна	-6628
▁редакции	-6629
▁родители	-6630
▁рождения	-6631
▁русскому	-6632
▁сохранит	-6633
▁страдают	-6634
▁судебную	-6635
▁текущего	-6636
▁телефону	-6637
▁требовал	-6638
▁утвержда	-6639
доровления	-6640
▁водителей	-6641
▁возникает	-6642
▁возобнови	-6643
▁восемьсот	-6644
▁встретили	-6645
▁достигнут	-6646
▁жёсткости	-6647
▁инвесторы	-6648
▁исследуют	-6649
▁литовской	-6650
▁магнитная	-6651
▁миллиарда	-6652
▁министров	-6653
▁нарушений	-6654
▁находился	-6655
▁начальник	-6656
▁обходится	-6657
▁отпускных	-6658
▁побережье	-6659
▁поставить	-6660
▁правописа	-6661
▁предсказа	-6662
▁принимает	-6663
▁принимать	-6664
▁провинциа	-6665
▁прокурора	-6666
▁пугачёвой	-6667
▁работники	-6668
▁свободной	-6669
▁создавать	-6670
▁сохранить	-6671
▁средствах	-6672
▁старается	-6673
▁чрезвычай	-6674
▁чувствуют	-6675
кладывается	-6676
▁ассоциации	-6677
▁бесплатное	-6678
▁благовещен	-6679
▁геологораз	-6680
▁дислокации	-6681
▁достижения	-6682
▁завершению	-6683
▁завоеваний	-6684
▁кандидатам	-6685
▁кубометров	-6686
▁литовского	-6687
▁находиться	-6688
▁начинается	-6689
▁неизменной	-6690
▁новогодние	-6691
▁обеспечить	-6692
▁обсуждения	-6693
▁пенсионный	-6694
▁перестанут	-6695
▁петербурга	-6696
▁поверхност	-6697
▁полководец	-6698
▁получается	-6699
▁приобрести	-6700
▁пристрасти	-6701
▁проводятся	-6702
▁реализация	-6703
▁референдум	-6704
▁сборочного	-6705
▁следствием	-6706
▁совершенно	-6707
▁социальные	-6708
▁специалист	-6709
▁акционерами	-6710
▁антибиотики	-6711
▁вкладчиками	-6712
▁голосования	-6713
▁государству	-6714
▁компьютеров	-6715
▁конституция	-6716
▁металлургии	-6717
▁наступление	-6718
▁объединений	-6719
▁обязательно	-6720
▁ограничения	-6721
▁переоборудо	-6722
▁подтвердили	-6723
▁поступления	-6724
▁присутствие	-6725
▁противников	-6726
▁разработали	-6727
▁рекомендуют	-6728
▁руководства	-6729
▁руководству	-6730
▁сегодняшняя	-6731
▁сохраняются	-6732
▁специальную	-6733
▁участвовать	-6734
▁шереметьево	-6735
▁акционерного	-6736
▁великолепные	-6737
▁двухтысячном	-6738
▁переселенцев	-6739
▁превратилась	-6740
▁продемонстри	-6741
▁противоречия	-6742
▁руководством	-6743
▁свердловской	-6744
▁согласования	-6745
▁транспортных	-6746
▁университета	-6747
▁благоприятные	-6748
▁избирательные	-6749
▁категорически	-6750
▁реорганизации	-6751
▁сопротивление	-6752
▁отечественного	-6753
▁дипломатические	-6754
зд	-6755
ъе	-6756
юр	-6757
яз	-6758
бии	-6759
бов	-6760
вил	-6761
вца	-6762
гал	-6763
гат	-6764
дир	-6765
дле	-6766
зой	-6767
зоф	-6768
ить	-6769
йза	-6770
каи	-6771
кле	-6772
лку	-6773
лой	-6774
лон	-6775
мея	-6776
обе	-6777
оки	-6778
они	-6779
пиа	-6780
сль	-6781
сою	-6782
стя	-6783
тян	-6784
фой	-6785
хле	-6786
хон	-6787
чез	-6788
▁ля	-6789
▁уж	-6790
▁эн	-6791
аппа	-6792
афри	-6793
вело	-6794
вета	-6795
гури	-6796
двор	-6797
дную	-6798
дует	-6799
екти	-6800
енья	-6801
ждан	-6802
зовы	-6803
кину	-6804
ломе	-6805
льше	-6806
маго	-6807
мисс	-6808
мися	-6809
моно	-6810
нета	-6811
рыно	-6812
рядо	-6813
ряет	-6814
сало	-6815
сами	-6816
сеть	-6817
сиди	-6818
соли	-6819
стую	-6820
счёт	-6821
тает	-6822
тари	-6823
телю	-6824
хгал	-6825
ходе	-6826
шина	-6827
шить	-6828
ьера	-6829
ючее	-6830
ясня	-6831
ёнка	-6832
▁ата	-6833
▁гол	-6834
▁гон	-6835
▁гры	-6836
▁дна	-6837
▁кух	-6838
▁лег	-6839
▁лук	-6840
▁миф	-6841
▁мой	-6842
▁мяг	-6843
▁оба	-6844
▁пес	-6845
▁сор	-6846
▁фин	-6847
▁чеш	-6848
▁шла	-6849
▁шоу	-6850
атрии	-6851
вляет	-6852
дации	-6853
дский	-6854
замен	-6855
зовую	-6856
крады	-6857
летит	-6858
лябин	-6859
метом	-6860
мятся	-6861
надле	-6862
ничья	-6863
нными	-6864
парта	-6865
пелля	-6866
собом	-6867
стана	-6868
стане	-6869
стаяв	-6870
стого	-6871
страи	-6872
стрию	-6873
сфере	-6874
тавли	-6875
чиков	-6876
ющему	-6877
▁акци	-6878
▁алла	-6879
▁базы	-6880
▁бана	-6881
▁бесс	-6882
▁веса	-6883
▁горы	-6884
▁древ	-6885
▁думе	-6886
▁душа	-6887
▁жару	-6888
▁заин	-6889
▁змея	-6890
▁зону	-6891
▁имен	-6892
▁исте	-6893
▁кафе	-6894
▁льды	-6895
▁масо	-6896
▁меро	-6897
▁млад	-6898
▁моно	-6899
▁небе	-6900
▁охот	-6901
▁полк	-6902
▁рису	-6903
▁сайт	-6904
▁сало	-6905
▁своя	-6906
▁свёр	-6907
▁секу	-6908
▁сила	-6909
▁силе	-6910
▁скла	-6911
▁спаз	-6912
▁тела	-6913
▁теса	-6914
▁фаши	-6915
▁фено	-6916
▁флаг	-6917
▁хлеб	-6918
▁чаще	-6919
▁чего	-6920
альных	-6921
бовать	-6922
ванных	-6923
вообра	-6924
гласия	-6925
глоязы	-6926
далось	-6927
женных	-6928
клонно	-6929
лилась	-6930
лилось	-6931
льтета	-6932
нилось	-6933
ренной	-6934
рующие	-6935
самблю	-6936
снован	-6937
ступах	-6938
тенциа	-6939
тересо	-6940
ченное	-6941
чилась	-6942
шедший	-6943
шистый	-6944
щенных	-6945
ясняли	-6946
▁брата	-6947
▁верхо	-6948
▁витри	-6949
▁вошёл	-6950
▁всеми	-6951
▁всеоб	-6952
▁вузов	-6953
▁выбор	-6954
▁диско	-6955
▁домой	-6956
▁друзь	-6957
▁жесто	-6958
▁захле	-6959
▁знако	-6960
▁зоной	-6961
▁измер	-6962
▁иконы	-6963
▁имидж	-6964
▁инфар	-6965
▁исчез	-6966
▁казну	-6967
▁какая	-6968
▁кален	-6969
▁корей	-6970
▁кровь	-6971
▁кровя	-6972
▁матча	-6973
▁медиа	-6974
▁набор	-6975
▁недав	-6976
▁огонь	-6977
▁округ	-6978
▁отчис	-6979
▁пейза	-6980
▁повар	-6981
▁подоз	-6982
▁полет	-6983
▁полит	-6984
▁примо	-6985
▁проин	-6986
▁пятна	-6987
▁распе	-6988
▁резко	-6989
▁рекон	-6990
▁решён	-6991
▁сетью	-6992
▁сидят	-6993
▁снего	-6994
▁согра	-6995
▁стаби	-6996
▁стари	-6997
▁судах	-6998
▁сырую	-6999
▁тести	-7000
▁торгу	-7001
▁точек	-7002
▁травм	-7003
▁уголь	-7004
▁удачи	-7005
▁узких	-7006
▁умное	-7007
▁храма	-7008
▁цвето	-7009
▁целью	-7010
▁шизоф	-7011
▁шпага	-7012
▁эпохи	-7013
▁эстра	-7014
африкан	-7015
вшимися	-7016
ективов	-7017
клиники	-7018
лизацию	-7019
магогии	-7020
новский	-7021
нокрады	-7022
ранение	-7023
сообраз	-7024
ставлен	-7025
хгалтер	-7026
▁акцент	-7027
▁апелля	-7028
▁аптека	-7029
▁богаче	-7030
▁бывает	-7031
▁важных	-7032
▁вечеру	-7033
▁взломе	-7034
▁винова	-7035
▁внутрь	-7036
▁выпить	-7037
▁выходи	-7038
▁гумани	-7039
▁добыча	-7040
▁дольше	-7041
▁евреев	-7042
▁жизней	-7043
▁жильцы	-7044
▁зареги	-7045
▁изыска	-7046
▁инсуль	-7047
▁каждой	-7048
▁корпус	-7049
▁литера	-7050
▁лучшим	-7051
▁мазута	-7052
▁мелких	-7053
▁миссии	-7054
▁начнут	-7055
▁обстоя	-7056
▁общего	-7057
▁объёме	-7058
▁ограни	-7059
▁оппози	-7060
▁оружей	-7061
▁особое	-7062
▁остави	-7063
▁переми	-7064
▁пирами	-7065
▁повест	-7066
▁подраз	-7067
▁подъез	-7068
▁поиски	-7069
▁порази	-7070
▁правам	-7071
▁привет	-7072
▁приказ	-7073
▁размер	-7074
▁разным	-7075
▁рамках	-7076
▁режиме	-7077
▁решить	-7078
▁совсем	-7079
▁сойдёт	-7080
▁старые	-7081
▁теории	-7082
▁товара	-7083
▁травму	-7084
▁трудом	-7085
▁уровни	-7086
▁устраи	-7087
▁фальши	-7088
▁фигури	-7089
▁фонари	-7090
▁церков	-7091
▁чёрную	-7092
▁экстра	-7093
▁эмигра	-7094
лябинске	-7095
никового	-7096
рованный	-7097
стаявшие	-7098
тельными	-7099
▁австрию	-7100
▁америке	-7101
▁арктики	-7102
▁берутся	-7103
▁боевики	-7104
▁будущем	-7105
▁ведутся	-7106
▁взрывча	-7107
▁властей	-7108
▁военных	-7109
▁воспита	-7110
▁вредным	-7111
▁выбрать	-7112
▁выдержа	-7113
▁выпуска	-7114
▁выстраи	-7115
▁гаранти	-7116
▁главном	-7117
▁горючее	-7118
▁горячую	-7119
▁департа	-7120
▁детстве	-7121
▁единого	-7122
▁история	-7123
▁капуста	-7124
▁карьере	-7125
▁квартир	-7126
▁комнату	-7127
▁консоли	-7128
▁корабля	-7129
▁лёгкими	-7130
▁мавзоле	-7131
▁мировом	-7132
▁мировые	-7133
▁мировым	-7134
▁москвич	-7135
▁навести	-7136
▁намибии	-7137
▁наносит	-7138
▁написал	-7139
▁наступа	-7140
▁невыгод	-7141
▁нередко	-7142
▁обследо	-7143
▁орбитам	-7144
▁останов	-7145
▁отметки	-7146
▁отрасли	-7147
▁питания	-7148
▁платежа	-7149
▁подоход	-7150
▁подошёл	-7151
▁покрыто	-7152
▁полгода	-7153
▁полиция	-7154
▁привело	-7155
▁принцип	-7156
▁природы	-7157
▁продажу	-7158
▁проекту	-7159
▁работал	-7160
▁разбира	-7161
▁расчёты	-7162
▁ребёнка	-7163
▁регионе	-7164
▁реестре	-7165
▁русским	-7166
▁сидоров	-7167
▁сосудов	-7168
▁столицы	-7169
▁субсиди	-7170
▁техники	-7171
▁товаров	-7172
▁требуют	-7173
▁угрозой	-7174
▁украину	-7175
▁участию	-7176
▁феномен	-7177
▁хватает	-7178
▁экзамен	-7179
зованного	-7180
▁англоязы	-7181
▁ансамблю	-7182
▁бедствия	-7183
▁вернулся	-7184
▁ветерина	-7185
▁восьмого	-7186
▁вызывают	-7187
▁высказал	-7188
▁газового	-7189
▁гарантии	-7190
▁глубокие	-7191
▁готовить	-7192
▁денежной	-7193
▁длинными	-7194
▁докладчи	-7195
▁зависеть	-7196
▁значение	-7197
▁известна	-7198
▁казалась	-7199
▁колумбии	-7200
▁корректи	-7201
▁меняется	-7202
▁местному	-7203
▁министра	-7204
▁монополи	-7205
▁наличный	-7206
▁отложить	-7207
▁охотничь	-7208
▁перекину	-7209
▁перерыва	-7210
▁периодом	-7211
▁политику	-7212
▁получать	-7213
▁получают	-7214
▁потенциа	-7215
▁премьера	-7216
▁препарат	-7217
▁приготов	-7218
▁приклады	-7219
▁принадле	-7220
▁приобрет	-7221
▁программ	-7222
▁рапирами	-7223
▁рассчита	-7224
▁родствен	-7225
▁способом	-7226
▁судебном	-7227
▁талантов	-7228
▁торговля	-7229
▁удержать	-7230
▁фондовых	-7231
▁холодное	-7232
ментальную	-7233
▁агентство	-7234
▁архитекту	-7235
▁аэропорта	-7236
▁бухгалтер	-7237
▁вчерашнее	-7238
▁делегация	-7239
▁демагогии	-7240
▁депрессии	-7241
▁депутатов	-7242
▁документа	-7243
▁доставлен	-7244
▁запрещает	-7245
▁заставила	-7246
▁известный	-7247
▁изготавли	-7248
▁интересов	-7249
▁комплексу	-7250
▁кровообра	-7251
▁маленький	-7252
▁наблюдать	-7253
▁настоящий	-7254
▁недоверие	-7255
▁некоторых	-7256
▁неуклонно	-7257
▁отключать	-7258
▁открывает	-7259
▁парусники	-7260
▁писателей	-7261
▁подступах	-7262
▁построили	-7263
▁поступает	-7264
▁православ	-7265
▁предметом	-7266
▁принципиа	-7267
▁приспособ	-7268
▁психологи	-7269
▁развивать	-7270
▁реализовы	-7271
▁реконстру	-7272
▁серьёзное	-7273
▁скоростью	-7274
▁снизилась	-7275
▁советский	-7276
▁сограждан	-7277
▁состояния	-7278
▁стремятся	-7279
▁суммарный	-7280
▁телефонов	-7281
▁тибетские	-7282
▁федерация	-7283
африканской	-7284
▁академиков	-7285
▁антарктики	-7286
▁бизнесмена	-7287
▁внутренних	-7288
▁детективов	-7289
▁заинтересо	-7290
▁заполнения	-7291
▁израильтян	-7292
▁институтов	-7293
▁коллектива	-7294
▁компромисс	-7295
▁крупнейшим	-7296
▁мероприяти	-7297
▁называемые	-7298
▁негативное	-7299
▁орфографии	-7300
▁официально	-7301
▁предпочита	-7302
▁президиума	-7303
▁проведение	-7304
▁прокуроров	-7305
▁психиатрии	-7306
▁публикации	-7307
▁разработан	-7308
▁растаявшие	-7309
▁реализован	-7310
▁семидесяти	-7311
▁сообщества	-7312
▁спортивных	-7313
▁стартовать	-7314
▁статистика	-7315
▁телефонных	-7316
▁террористи	-7317
▁требования	-7318
▁увеличение	-7319
▁учреждения	-7320
▁факультета	-7321
▁физических	-7322
▁челябинске	-7323
▁четырёхсот	-7324
▁экспертный	-7325
▁энерготари	-7326
▁возвращение	-7327
▁возвращения	-7328
▁восемьдесят	-7329
▁воскресенье	-7330
▁восприятием	-7331
▁департамент	-7332
▁катастрофой	-7333
▁лаборатории	-7334
▁необходимые	-7335
▁поликлиники	-7336
▁попробовать	-7337
▁праздничном	-7338
▁представлял	-7339
▁предусматри	-7340
▁преступники	-7341
▁произведены	-7342
▁прокуратуру	-7343
▁разногласия	-7344
▁реализовать	-7345
▁собственные	-7346
▁собственных	-7347
▁современной	-7348
▁сохраняется	-7349
▁талантливых	-7350
▁федеральная	-7351
▁шестидесяти	-7352
▁генетических	-7353
▁губернаторов	-7354
▁единственный	-7355
▁компьютерные	-7356
▁контролирует	-7357
▁пострадавших	-7358
▁предоставили	-7359
▁представлено	-7360
▁продолжалась	-7361
▁рассмотрение	-7362
▁соревнования	-7363
▁формировании	-7364
▁выстраивается	-7365
▁губернаторами	-7366
▁корреспондент	-7367
▁предприятиями	-7368
▁себестоимость	-7369
▁существующего	-7370
▁удовлетворено	-7371
▁урегулировать	-7372
▁экономическую	-7373
▁автотранспорта	-7374
▁взаимодействие	-7375
▁корреспондента	-7376
▁кровообращения	-7377
▁осуществляется	-7378
▁осуществляться	-7379
▁приветствовать	-7380
▁проинформирова	-7381
▁электростанции	-7382
▁зарегистрирован	-7383
▁предоставленной	-7384
▁предоставляются	-7385
▁представителями	-7386
тк	-7387
вис	-7388
дию	-7389
дке	-7390
дра	-7391
жеб	-7392
жио	-7393
жут	-7394
зай	-7395
зин	-7396
зыс	-7397
кал	-7398
кои	-7399
лам	-7400
лда	-7401
лий	-7402
мар	-7403
мас	-7404
нде	-7405
пно	-7406
све	-7407
сво	-7408
ссе	-7409
фио	-7410
чёл	-7411
▁вя	-7412
▁еж	-7413
▁чт	-7414
бачё	-7415
бели	-7416
бище	-7417
боро	-7418
веси	-7419
вной	-7420
вном	-7421
воды	-7422
воци	-7423
выше	-7424
гает	-7425
дали	-7426
деть	-7427
дине	-7428
дков	-7429
етов	-7430
жище	-7431
жный	-7432
жных	-7433
зиат	-7434
зион	-7435
зуют	-7436
йорк	-7437
ката	-7438
ктам	-7439
лони	-7440
любл	-7441
нтом	-7442
пазо	-7443
план	-7444
поль	-7445
рдов	-7446
ссив	-7447
ссоз	-7448
сули	-7449
ткну	-7450
тура	-7451
тяну	-7452
чала	-7453
чине	-7454
чься	-7455
шинг	-7456
щики	-7457
▁аза	-7458
▁арт	-7459
▁бар	-7460
▁выс	-7461
▁жан	-7462
▁ков	-7463
▁лен	-7464
▁нез	-7465
▁неё	-7466
▁ока	-7467
▁ост	-7468
▁охо	-7469
▁оши	-7470
▁пал	-7471
▁печ	-7472
▁пли	-7473
▁пой	-7474
▁сби	-7475
▁счё	-7476
▁уво	-7477
▁уде	-7478
▁уль	-7479
▁хри	-7480
▁чёт	-7481
▁шаг	-7482
▁эле	-7483
бинет	-7484
бурга	-7485
вских	-7486
гчить	-7487
движи	-7488
демия	-7489
емеся	-7490
ениев	-7491
жется	-7492
жский	-7493
зиден	-7494
зыска	-7495
йству	-7496
кация	-7497
кость	-7498
опера	-7499
равне	-7500
ренер	-7501
ситет	-7502
скопы	-7503
совых	-7504
созна	-7505
споко	-7506
ссион	-7507
сылки	-7508
тивно	-7509
тивой	-7510
тивом	-7511
товой	-7512
точни	-7513
чикам	-7514
▁ажио	-7515
▁акты	-7516
▁алма	-7517
▁арен	-7518
▁арти	-7519
▁баро	-7520
▁билл	-7521
▁весо	-7522
▁гази	-7523
▁гром	-7524
▁дата	-7525
▁двое	-7526
▁домо	-7527
▁зали	-7528
▁заха	-7529
▁зимы	-7530
▁иран	-7531
▁козы	-7532
▁коме	-7533
▁лебе	-7534
▁лето	-7535
▁мора	-7536
▁море	-7537
▁надё	-7538
▁океа	-7539
▁осве	-7540
▁отде	-7541
▁пала	-7542
▁перу	-7543
▁побы	-7544
▁пора	-7545
▁поте	-7546
▁рука	-7547
▁ряда	-7548
▁саму	-7549
▁сдви	-7550
▁снис	-7551
▁спас	-7552
▁стоя	-7553
▁упла	-7554
▁фини	-7555
▁фраг	-7556
▁цено	-7557
▁чита	-7558
блений	-7559
виками	-7560
вшийся	-7561
ганцев	-7562
говору	-7563
дствен	-7564
дцатый	-7565
емного	-7566
живают	-7567
зались	-7568
зысход	-7569
клоном	-7570
нулось	-7571
онаблю	-7572
планет	-7573
ранные	-7574
ровано	-7575
родвин	-7576
своему	-7577
сителя	-7578
скорби	-7579
служба	-7580
стойчи	-7581
стребо	-7582
строфы	-7583
тивным	-7584
трафио	-7585
центра	-7586
ченный	-7587
чивого	-7588
шивают	-7589
щалось	-7590
щаться	-7591
щенный	-7592
▁азота	-7593
▁анато	-7594
▁белки	-7595
▁бомбу	-7596
▁борту	-7597
▁ветра	-7598
▁взгля	-7599
▁видны	-7600
▁вирус	-7601
▁влюбл	-7602
▁внедр	-7603
▁воору	-7604
▁дизай	-7605
▁добра	-7606
▁долгу	-7607
▁дорог	-7608
▁досто	-7609
▁загля	-7610
▁залог	-7611
▁замед	-7612
▁запла	-7613
▁затем	-7614
▁зашла	-7615
▁кавка	-7616
▁карты	-7617
▁клони	-7618
▁книга	-7619
▁конта	-7620
▁краси	-7621
▁любую	-7622
▁марта	-7623
▁масло	-7624
▁менее	-7625
▁месте	-7626
▁минск	-7627
▁минут	-7628
▁нации	-7629
▁нетер	-7630
▁ночью	-7631
▁нужна	-7632
▁общий	-7633
▁одина	-7634
▁озера	-7635
▁окись	-7636
▁опере	-7637
▁отеля	-7638
▁отнес	-7639
▁песни	-7640
▁повед	-7641
▁подро	-7642
▁почув	-7643
▁розни	-7644
▁самой	-7645
▁сверх	-7646
▁свыше	-7647
▁сексу	-7648
▁совпа	-7649
▁срока	-7650
▁сутки	-7651
▁сырой	-7652
▁таком	-7653
▁точки	-7654
▁умира	-7655
▁ураль	-7656
▁услуг	-7657
▁храня	-7658
▁ценам	-7659
▁черты	-7660
▁чужие	-7661
▁этажи	-7662
▁южную	-7663
вернуть	-7664
врополь	-7665
деления	-7666
комплек	-7667
пускать	-7668
чивость	-7669
▁банкам	-7670
▁беспре	-7671
▁борьбу	-7672
▁бронхи	-7673
▁вариан	-7674
▁вашинг	-7675
▁ввести	-7676
▁воздей	-7677
▁воссоз	-7678
▁востор	-7679
▁врачей	-7680
▁втором	-7681
▁гениев	-7682
▁гибели	-7683
▁границ	-7684
▁группе	-7685
▁данный	-7686
▁диабет	-7687
▁диспет	-7688
▁женщин	-7689
▁заказа	-7690
▁запрет	-7691
▁здании	-7692
▁играет	-7693
▁играть	-7694
▁инсули	-7695
▁кавказ	-7696
▁казани	-7697
▁клетки	-7698
▁машине	-7699
▁москву	-7700
▁наблюд	-7701
▁облига	-7702
▁обыска	-7703
▁отгруз	-7704
▁отдали	-7705
▁перело	-7706
▁победы	-7707
▁подала	-7708
▁подать	-7709
▁подача	-7710
▁подвер	-7711
▁подклю	-7712
▁подряд	-7713
▁поиску	-7714
▁провёл	-7715
▁прямым	-7716
▁пушкин	-7717
▁раскру	-7718
▁рыбаки	-7719
▁сказал	-7720
▁сложно	-7721
▁служеб	-7722
▁слухов	-7723
▁снижен	-7724
▁снимки	-7725
▁сооруж	-7726
▁стыдно	-7727
▁счетов	-7728
▁теорию	-7729
▁тренер	-7730
▁учения	-7731
▁христа	-7732
▁членам	-7733
▁шпиона	-7734
▁экране	-7735
емесячно	-7736
зиатских	-7737
зидентов	-7738
перского	-7739
служащих	-7740
сознание	-7741
тируется	-7742
▁адвокат	-7743
▁аскорби	-7744
▁атомная	-7745
▁ведётся	-7746
▁верхней	-7747
▁вкладчи	-7748
▁владеет	-7749
▁военная	-7750
▁военный	-7751
▁возьмут	-7752
▁встрече	-7753
▁высшего	-7754
▁горбачё	-7755
▁горячей	-7756
▁грозный	-7757
▁демокра	-7758
▁диапазо	-7759
▁жёсткие	-7760
▁заповед	-7761
▁звёздам	-7762
▁кабинет	-7763
▁комнате	-7764
▁компакт	-7765
▁которых	-7766
▁кредито	-7767
▁крупным	-7768
▁лидером	-7769
▁лыжники	-7770
▁милиции	-7771
▁надзора	-7772
▁наравне	-7773
▁недвижи	-7774
▁оборудо	-7775
▁осадков	-7776
▁отметке	-7777
▁пациент	-7778
▁перепол	-7779
▁поймали	-7780
▁последо	-7781
▁потерпе	-7782
▁предъяв	-7783
▁провели	-7784
▁проекте	-7785
▁расходы	-7786
▁реально	-7787
▁репорта	-7788
▁решению	-7789
▁сделана	-7790
▁сначала	-7791
▁тревогу	-7792
▁убежище	-7793
▁уделено	-7794
▁феврале	-7795
▁филиала	-7796
▁центром	-7797
▁эфирные	-7798
▁югослав	-7799
ствование	-7800
трафиолет	-7801
▁анатолий	-7802
▁аппарата	-7803
▁афганцев	-7804
▁безуслов	-7805
▁безысход	-7806
▁беспокои	-7807
▁векового	-7808
▁величине	-7809
▁взяточни	-7810
▁вильнюсе	-7811
▁виновным	-7812
▁внеочере	-7813
▁внимания	-7814
▁военного	-7815
▁возросла	-7816
▁возросло	-7817
▁вопросам	-7818
▁выбирают	-7819
▁выглядят	-7820
▁вырабаты	-7821
▁выслушал	-7822
▁газифика	-7823
▁границей	-7824
▁действий	-7825
▁крепости	-7826
▁местного	-7827
▁народных	-7828
▁обвиняют	-7829
▁обладают	-7830
▁основные	-7831
▁осталась	-7832
▁открытий	-7833
▁передачи	-7834
▁позволит	-7835
▁помирить	-7836
▁поставку	-7837
▁приходят	-7838
▁проводит	-7839
▁середине	-7840
▁согласии	-7841
▁содержит	-7842
▁способны	-7843
▁среднего	-7844
▁телеграм	-7845
▁уплатить	-7846
▁холдинга	-7847
▁циклоном	-7848
▁шестьсот	-7849
▁эпидемия	-7850
катастрофы	-7851
петербурге	-7852
▁активными	-7853
▁вернуться	-7854
▁владельца	-7855
▁владимира	-7856
▁возможное	-7857
▁встретить	-7858
▁выступить	-7859
▁гироскопы	-7860
▁двадцатый	-7861
▁избранный	-7862
▁изменений	-7863
▁импортных	-7864
▁компанией	-7865
▁конвейера	-7866
▁конфликта	-7867
▁космонавт	-7868
▁кредитных	-7869
▁материала	-7870
▁множество	-7871
▁монастыре	-7872
▁названием	-7873
▁наземного	-7874
▁обратился	-7875
▁объявлено	-7876
▁отнеслись	-7877
▁памятника	-7878
▁предложен	-7879
▁приборами	-7880
▁продление	-7881
▁проходить	-7882
▁революций	-7883
▁рекламных	-7884
▁серьёзной	-7885
▁ситуацией	-7886
▁снижаться	-7887
▁составили	-7888
▁спасителя	-7889
▁способные	-7890
▁структуру	-7891
▁футболист	-7892
▁чемпионом	-7893
▁четвёртую	-7894
▁четвёртый	-7895
▁швейцарии	-7896
онаблюдения	-7897
▁автомобиля	-7898
▁алкоголизм	-7899
▁банковской	-7900
▁вкладчикам	-7901
▁десантники	-7902
▁десятилети	-7903
▁документов	-7904
▁ежемесячно	-7905
▁завершился	-7906
▁заказчикам	-7907
▁заседаниях	-7908
▁изготовить	-7909
▁исполнения	-7910
▁коммунисты	-7911
▁крупнейших	-7912
▁мастерства	-7913
▁миротворцы	-7914
▁необходима	-7915
▁обнаружено	-7916
▁обратиться	-7917
▁отключения	-7918
▁парламенте	-7919
▁пассажирам	-7920
▁пассажиров	-7921
▁позитивных	-7922
▁постоянном	-7923
▁продолжают	-7924
▁публикация	-7925
▁радикально	-7926
▁российскую	-7927
▁северодвин	-7928
▁смертность	-7929
▁сокращение	-7930
▁сокращении	-7931
▁сообщалось	-7932
▁сооружений	-7933
▁состоялись	-7934
▁ставрополь	-7935
▁творчество	-7936
▁телевизион	-7937
▁чемпионата	-7938
▁авиационной	-7939
▁акционерное	-7940
▁большинстве	-7941
▁вооружённые	-7942
▁действовать	-7943
▁десантников	-7944
▁задействова	-7945
▁знаменитого	-7946
▁информацией	-7947
▁конференции	-7948
▁обеспечение	-7949
▁подсознание	-7950
▁показателей	-7951
▁предпосылки	-7952
▁представлен	-7953
▁российскими	-7954
▁сотрудников	-7955
▁существенно	-7956
▁тысячелетии	-7957
▁тысячелетий	-7958
▁университет	-7959
▁устойчивого	-7960
▁чрезвычайно	-7961
▁	-7962
о	-7963
е	-7964
и	-7965
а	-7966
н	-7967
т	-7968
с	-7969
р	-7970
в	-7971
л	-7972
к	-7973
д	-7974
м	-7975
п	-7976
у	-7977
ы	-7978
я	-7979
ь	-7980
б	-7981
з	-7982
г	-7983
ч	-7984
й	-7985
х	-7986
ж	-7987
ю	-7988
ц	-7989
ш	-7990
ф	-7991
щ	-7992
э	-7993
ё	-7994
-	-7995
ъ	-7996
